[PAD]
[UNK]
[CLS]
[SEP]
[MASK]
[SUB]
!
"
#
$
%
&
'
(
)
*
+
,
-
.
/
0
1
2
3
4
5
6
7
8
9
:
;
<
=
>
?
@
[
\
]
^
_
`
a
b
c
d
e
f
g
h
i
j
k
l
m
n
o
p
q
r
s
t
u
v
w
x
y
z
{
|
}
~
¡
¢
£
¤
¥
¦
§
¨
©
ª
«
¬
®
°
±
²
³
´
µ
¶
·
¹
º
»
¼
½
¾
¿
×
ß
æ
ð
÷
ø
þ
đ
ħ
ı
ł
ŋ
œ
ƒ
ɐ
ɑ
ɒ
ɔ
ɕ
ə
ɛ
ɡ
ɣ
ɨ
ɪ
ɫ
ɬ
ɯ
ɲ
ɴ
ɹ
ɾ
ʀ
ʁ
ʂ
ʃ
ʉ
ʊ
ʋ
ʌ
ʎ
ʐ
ʑ
ʒ
ʔ
ʰ
ʲ
ʳ
ʷ
ʸ
ʻ
ʼ
ʾ
ʿ
ˈ
ː
ˡ
ˢ
ˣ
ˤ
α
β
γ
δ
ε
ζ
η
θ
ι
κ
λ
μ
ν
ξ
ο
π
ρ
ς
σ
τ
υ
φ
χ
ψ
ω
а
б
в
г
д
е
ж
з
и
к
л
м
н
о
п
р
с
т
у
ф
х
ц
ч
ш
щ
ъ
ы
ь
э
ю
я
ђ
є
і
ј
љ
њ
ћ
ӏ
ա
բ
գ
դ
ե
թ
ի
լ
կ
հ
մ
յ
ն
ո
պ
ս
վ
տ
ր
ւ
ք
־
א
ב
ג
ד
ה
ו
ז
ח
ט
י
ך
כ
ל
ם
מ
ן
נ
ס
ע
ף
פ
ץ
צ
ק
ר
ש
ת
،
ء
ا
ب
ة
ت
ث
ج
ح
خ
د
ذ
ر
ز
س
ش
ص
ض
ط
ظ
ع
غ
ـ
ف
ق
ك
ل
م
ن
ه
و
ى
ي
ٹ
پ
چ
ک
گ
ں
ھ
ہ
ی
ے
अ
आ
उ
ए
क
ख
ग
च
ज
ट
ड
ण
त
थ
द
ध
न
प
ब
भ
म
य
र
ल
व
श
ष
स
ह
ा
ि
ी
ो
।
॥
ং
অ
আ
ই
উ
এ
ও
ক
খ
গ
চ
ছ
জ
ট
ড
ণ
ত
থ
দ
ধ
ন
প
ব
ভ
ম
য
র
ল
শ
ষ
স
হ
া
ি
ী
ে
க
ச
ட
த
ந
ன
ப
ம
ய
ர
ல
ள
வ
ா
ி
ு
ே
ை
ನ
ರ
ಾ
ක
ය
ර
ල
ව
ා
ก
ง
ต
ท
น
พ
ม
ย
ร
ล
ว
ส
อ
า
เ
་
།
ག
ང
ད
ན
པ
བ
མ
འ
ར
ལ
ས
မ
ა
ბ
გ
დ
ე
ვ
თ
ი
კ
ლ
მ
ნ
ო
რ
ს
ტ
უ
ᄀ
ᄂ
ᄃ
ᄅ
ᄆ
ᄇ
ᄉ
ᄊ
ᄋ
ᄌ
ᄎ
ᄏ
ᄐ
ᄑ
ᄒ
ᅡ
ᅢ
ᅥ
ᅦ
ᅧ
ᅩ
ᅪ
ᅭ
ᅮ
ᅯ
ᅲ
ᅳ
ᅴ
ᅵ
ᆨ
ᆫ
ᆯ
ᆷ
ᆸ
ᆼ
ᴬ
ᴮ
ᴰ
ᴵ
ᴺ
ᵀ
ᵃ
ᵇ
ᵈ
ᵉ
ᵍ
ᵏ
ᵐ
ᵒ
ᵖ
ᵗ
ᵘ
ᵢ
ᵣ
ᵤ
ᵥ
ᶜ
ᶠ
‐
‑
‒
–
—
―
‖
‘
’
‚
“
”
„
†
‡
•
…
‰
′
″
›
‿
⁄
⁰
ⁱ
⁴
⁵
⁶
⁷
⁸
⁹
⁺
⁻
ⁿ
₀
₁
₂
₃
₄
₅
₆
₇
₈
₉
₊
₍
₎
ₐ
ₑ
ₒ
ₓ
ₕ
ₖ
ₗ
ₘ
ₙ
ₚ
ₛ
ₜ
₤
₩
€
₱
₹
ℓ
№
ℝ
™
⅓
⅔
←
↑
→
↓
↔
↦
⇄
⇌
⇒
∂
∅
∆
∇
∈
−
∗
∘
√
∞
∧
∨
∩
∪
≈
≡
≤
≥
⊂
⊆
⊕
⊗
⋅
─
│
■
▪
●
★
☆
☉
♠
♣
♥
♦
♭
♯
⟨
⟩
ⱼ
⺩
⺼
⽥
、
。
〈
〉
《
》
「
」
『
』
〜
あ
い
う
え
お
か
き
く
け
こ
さ
し
す
せ
そ
た
ち
っ
つ
て
と
な
に
ぬ
ね
の
は
ひ
ふ
へ
ほ
ま
み
む
め
も
や
ゆ
よ
ら
り
る
れ
ろ
を
ん
ァ
ア
ィ
イ
ウ
ェ
エ
オ
カ
キ
ク
ケ
コ
サ
シ
ス
セ
タ
チ
ッ
ツ
テ
ト
ナ
ニ
ノ
ハ
ヒ
フ
ヘ
ホ
マ
ミ
ム
メ
モ
ャ
ュ
ョ
ラ
リ
ル
レ
ロ
ワ
ン
・
ー
一
三
上
下
不
世
中
主
久
之
也
事
二
五
井
京
人
亻
仁
介
代
仮
伊
会
佐
侍
保
信
健
元
光
八
公
内
出
分
前
劉
力
加
勝
北
区
十
千
南
博
原
口
古
史
司
合
吉
同
名
和
囗
四
国
國
土
地
坂
城
堂
場
士
夏
外
大
天
太
夫
奈
女
子
学
宀
宇
安
宗
定
宣
宮
家
宿
寺
將
小
尚
山
岡
島
崎
川
州
巿
帝
平
年
幸
广
弘
張
彳
後
御
德
心
忄
志
忠
愛
成
我
戦
戸
手
扌
政
文
新
方
日
明
星
春
昭
智
曲
書
月
有
朝
木
本
李
村
東
松
林
森
楊
樹
橋
歌
止
正
武
比
氏
民
水
氵
氷
永
江
沢
河
治
法
海
清
漢
瀬
火
版
犬
王
生
田
男
疒
発
白
的
皇
目
相
省
真
石
示
社
神
福
禾
秀
秋
空
立
章
竹
糹
美
義
耳
良
艹
花
英
華
葉
藤
行
街
西
見
訁
語
谷
貝
貴
車
軍
辶
道
郎
郡
部
都
里
野
金
鈴
镇
長
門
間
阝
阿
陳
陽
雄
青
面
風
食
香
馬
高
龍
龸
ﬁ
ﬂ
！
（
）
，
－
．
／
：
？
～
the
of
and
in
to
wa
he
is
as
for
on
with
that
it
hi
by
at
from
her
##s
she
you
had
an
were
but
be
thi
are
not
my
they
one
which
or
have
him
me
first
all
also
their
ha
up
who
out
been
when
after
there
into
new
two
##a
time
would
no
what
about
said
we
over
then
other
so
more
##e
can
if
like
back
them
onli
some
could
##i
where
just
##ing
dure
befor
##n
do
##o
made
school
through
than
now
year
most
world
may
between
down
well
three
##d
while
will
##ed
##r
##y
later
##t
citi
under
around
did
such
use
state
peopl
part
know
against
your
mani
second
univers
both
nation
##er
these
don
known
off
way
until
re
how
even
get
head
...
didn
##ly
team
american
becaus
de
##l
born
unit
film
sinc
still
long
work
south
us
becam
ani
high
again
day
famili
see
right
man
eye
hous
season
war
includ
took
life
north
same
each
call
name
much
place
howev
go
four
group
anoth
found
won
area
here
10
away
seri
left
home
music
best
make
hand
number
compani
sever
never
last
john
veri
album
take
end
good
too
follow
releas
game
play
littl
began
district
##m
old
want
those
side
held
own
earli
counti
ll
leagu
west
##u
face
think
##es
govern
##h
march
came
small
gener
town
june
##on
line
base
someth
##k
septemb
thought
look
along
intern
air
juli
club
went
januari
octob
our
august
april
york
12
few
east
show
member
colleg
father
public
##us
come
men
five
set
station
church
##c
next
former
novemb
room
parti
locat
decemb
age
got
##g
system
let
love
though
everi
song
water
centuri
without
bodi
black
night
within
great
women
singl
ve
build
larg
popul
river
band
white
start
##an
onc
15
20
should
18
servic
top
built
british
open
death
king
move
local
children
februari
book
whi
11
door
need
presid
order
final
road
wasn
although
due
major
die
villag
third
knew
ask
turn
st
say
##p
togeth
receiv
main
son
serv
differ
##en
behind
himself
felt
power
footbal
law
voic
##in
near
park
histori
30
16
##man
saw
mother
##al
armi
point
front
help
english
street
art
late
award
##ia
young
14
put
publish
countri
divis
across
told
13
often
ever
french
london
center
six
red
led
light
25
find
tell
among
speci
realli
accord
central
half
form
origin
gave
offic
enough
lost
full
must
live
given
german
player
run
busi
woman
commun
cup
might
million
land
court
develop
17
short
round
ii
km
seen
class
stori
alway
becom
sure
research
almost
director
council
la
##2
career
thing
island
##z
couldn
car
##is
24
close
forc
##1
better
free
support
control
field
student
educ
marri
##b
noth
record
big
insid
level
anyth
continu
give
jame
##3
militari
establish
non
return
feel
doe
titl
written
feet
william
far
co
associ
hard
alreadi
##ra
championship
human
western
##na
depart
hall
role
variou
product
21
19
heart
fire
version
##ers
##f
televis
royal
##4
produc
act
case
societi
region
present
radio
period
least
total
keep
england
wife
program
per
brother
mind
special
22
##le
am
soon
##6
polit
georg
taken
creat
##7
further
abl
reach
david
union
join
upon
done
import
social
inform
either
##ic
##x
appear
posit
ground
lead
rock
dark
elect
23
board
franc
hair
cours
arm
site
polic
girl
instead
real
sound
##v
word
moment
##te
someon
##8
summer
project
announc
san
less
wrote
past
##5
blue
al
india
america
##ne
design
consid
northern
god
stop
battl
toward
european
outsid
describ
track
today
languag
28
26
heard
profession
low
australia
mile
california
win
yet
green
##ie
tri
blood
##ton
southern
scienc
mayb
everyth
match
squar
27
mouth
video
race
leav
abov
##9
daughter
space
museum
chang
middl
common
##0
tv
post
##ta
lake
seven
ten
paul
minist
##th
month
chief
canada
person
sea
similar
modern
brought
rest
hit
mr
##la
floor
event
thoma
robert
care
kill
train
star
week
finish
railway
rather
news
health
sent
exampl
ran
term
michael
current
ye
despit
gold
50
stage
fact
29
dead
popular
germani
probabl
result
pull
friend
stood
money
mi
sign
child
eventu
met
tour
averag
minut
festiv
deep
kind
decid
usual
eastern
seem
##ness
episod
bed
ad
tabl
indian
privat
charl
rout
avail
idea
throughout
centr
addit
appoint
style
eight
construct
press
mean
wall
remain
studi
##ch
##um
institut
oh
chines
sometim
possibl
australian
type
brown
forward
talk
process
food
debut
seat
perform
committe
featur
charact
herself
els
lot
strong
russian
rang
hour
peter
##da
morn
dr
sold
##ry
quickli
direct
guitar
china
##w
31
list
##ma
media
uk
smile
##rs
myself
40
coach
provinc
wouldn
whole
boy
offici
grand
censu
##el
europ
attack
japanes
henri
##re
##os
cross
alon
action
lower
network
wide
washington
japan
hospit
believ
sister
##ar
hold
gone
sir
hadn
ship
##ka
academi
shot
below
bad
involv
kept
largest
##ist
bank
futur
especi
begin
mark
movement
section
femal
magazin
plan
professor
lord
longer
##ian
sat
walk
hill
actual
civil
energi
model
size
thu
aircraft
complet
data
captain
##or
fight
vocal
richard
bridg
fourth
stone
hear
##ism
medic
manag
self
lip
competit
entir
technolog
feder
tournament
bit
pass
hot
independ
kingdom
mari
spent
fine
doesn
report
##ling
jack
fall
rais
itself
stay
true
studio
sport
replac
pari
saint
leader
theatr
whose
market
capit
parent
spanish
canadian
earth
##ity
cut
degre
write
bay
christian
natur
higher
bill
##as
coast
provid
previou
senior
ft
valley
organ
onto
confer
queen
secur
interest
allow
master
earlier
phone
matter
smith
happen
campaign
lo
##ley
breath
nearli
mid
certain
date
italian
african
stand
fell
artist
##ted
deal
mine
industri
##ng
everyon
republ
collect
librari
##ville
primari
older
via
heavi
1st
##able
attent
anyon
africa
##ri
length
finger
command
staff
skin
foreign
governor
okay
medal
sun
cover
job
introduc
chest
hell
##ies
success
meet
reason
standard
novel
trade
sourc
##land
rose
guy
goal
##ur
chapter
nativ
husband
previous
limit
enter
oper
mountain
relat
roman
key
texa
cold
##ya
channel
tradit
danc
clear
approxim
nine
van
princ
question
activ
ireland
silver
author
sens
##ine
econom
twenti
isbn
speed
edit
regular
histor
whom
shook
movi
km²
secretari
prior
chicago
read
foundat
view
engin
score
airport
properti
readi
immedi
ladi
contract
##de
themselv
##ki
navi
writer
meant
##ts
##ro
practic
singer
glass
commiss
requir
forest
cultur
access
attend
test
coupl
cathol
martin
caught
execut
##less
##ey
chair
quit
shoulder
hope
decis
defeat
municip
whether
structur
offer
slowli
pain
ice
##ion
paper
mission
mostli
note
individu
plant
##ha
except
comput
figur
relationship
issu
signific
loss
gun
ago
highest
##am
male
bring
mexico
problem
distanc
commerci
annual
famou
drive
neck
surfac
caus
itali
understand
greek
highway
wrong
hotel
joseph
doubl
castl
incom
review
assembl
bass
initi
parliament
experi
particular
foot
window
drop
##ter
miss
babi
break
edg
rememb
polici
carri
stadium
bar
sex
angel
evid
##ge
assist
soviet
upper
step
wing
youth
financi
##ll
actor
numer
##se
##st
nod
arriv
##ation
##nt
sorri
complex
beauti
victori
templ
chanc
perhap
metal
##son
bishop
##et
lee
launch
particularli
tree
le
retir
subject
prize
contain
yeah
theori
empir
##ce
suddenli
wait
trust
##to
happi
camp
champion
religi
zealand
2nd
port
ancient
tom
corner
repres
watch
legal
anti
justic
45
materi
simpli
respons
loui
fast
##ting
answer
60
straight
increas
rate
administr
virginia
el
overal
winner
basketbal
leg
guard
beyond
cast
doctor
mm
flight
cost
effect
winter
##ble
larger
chairman
grew
isn
pay
fail
select
hurt
fort
box
regiment
journal
35
edward
##ke
##ni
shown
pretti
irish
directli
scene
spring
##j
junior
mike
fellow
##tion
beach
marriag
##ham
##ive
rule
oil
65
florida
expect
nearbi
congress
sam
peac
recent
iii
subsequ
cell
##do
varieti
agre
pleas
poor
joe
pacif
attempt
wood
democrat
piec
prime
##ca
rural
touch
township
soldier
##men
##ized
pennsylvania
closer
claim
jone
physic
editor
##ous
fill
genu
specif
sit
super
mom
##va
therefor
statu
fear
store
wale
minor
spain
tower
focu
vice
frank
parish
separ
golden
hors
fifth
branch
32
stare
##id
secret
##co
basebal
exactli
##ck
choic
discov
travel
compos
truth
russia
ball
color
kiss
dad
wind
ring
refer
digit
greater
##ns
metr
slightli
crew
troop
##no
broke
goe
hundr
weight
creek
sleep
memori
defens
code
valu
jewish
safe
judg
whatev
corp
realiz
grow
pre
##ga
alexand
gaze
lie
spread
scott
letter
situat
mayor
transport
worker
extend
##li
express
normal
##ment
chart
multipl
border
##ba
host
##ner
daili
piano
##ko
heat
cannot
##ate
earn
drama
era
grade
##io
difficult
machin
territori
mainli
##wood
squadron
iron
19th
##led
sky
speak
broken
charg
knowledg
kilometr
remov
articl
campu
simpl
##ty
push
britain
##ve
cd
soft
boston
latter
easi
acquir
poland
##sa
qualiti
presenc
mass
broadcast
jean
share
imag
influenc
wild
emperor
electr
abil
promot
yellow
ministri
throat
smaller
politician
##by
latin
spoke
lack
pop
80
##ier
consist
##ti
estat
pressur
johnson
newspap
jr
chri
olymp
onlin
condit
beat
element
vote
##field
carolina
text
global
block
shirt
francisco
purpos
et
dutch
duke
ahead
ga
twice
safeti
seriou
highli
lieuten
firm
maria
amount
mix
daniel
propos
perfect
agreement
affair
3rd
contemporari
paid
prison
save
kitchen
label
intend
academ
nice
teacher
formerli
corpor
ben
shut
drum
victoria
opera
graduat
function
von
mention
pick
recogn
shortli
protect
pictur
notabl
exchang
1980
percent
fish
elizabeth
garden
volum
hockey
besid
settl
##ford
compet
repli
drew
actress
marin
scotland
steel
glanc
farm
steve
risk
tonight
magic
gray
screen
dog
##ja
resid
bu
none
secondari
literatur
polish
destroy
fli
founder
household
lay
reserv
usa
galleri
##ler
younger
approach
urban
avenu
fulli
growth
page
honor
jersey
advanc
reveal
basic
90
infantri
pair
equip
visit
33
search
grant
effort
solo
treatment
buri
republican
primarili
bottom
owner
1970
israel
jim
dream
bob
spot
70
contact
ed
soul
accept
del
##ally
lose
split
price
capac
basi
trial
##ina
20th
guess
naval
##ization
whisper
median
##ful
sydney
##go
columbia
strength
tear
senat
00
card
asian
agent
softwar
44
draw
warm
suppos
com
pro
##il
transfer
lean
##at
candid
escap
asia
potenti
entertain
traffic
jackson
murder
36
slow
orchestra
haven
agenc
bbc
taught
websit
comedi
unabl
storm
rugbi
environ
scientif
grab
##hi
boat
typic
damag
princip
divid
dedic
mount
ohio
##berg
fought
driver
##der
empti
sort
thank
berlin
promin
account
freedom
necessari
alex
headquart
alongsid
simon
andrew
suggest
learn
sweet
technic
easili
34
teeth
settlement
scale
##sh
renam
ray
max
enemi
semi
joint
compar
##rd
scottish
leadership
analysi
georgia
captur
anim
deputi
guest
##lin
toni
combin
method
challeng
1960
huge
battalion
rise
crime
facil
path
platform
1990
##lo
assign
rich
##ot
commonli
aliv
##za
concept
conduct
wear
bought
holi
ocean
purchas
coffe
occur
##q
declar
appli
concert
jazz
brain
##me
paint
fleet
tax
nick
##ius
michigan
count
##line
content
##den
birth
##it
64
palac
critic
refus
fair
laugh
surround
particip
format
lift
connect
rome
medicin
laid
taylor
santa
adam
tall
focus
yard
entranc
##wa
##ad
chosen
beneath
resourc
##ite
nomin
silenc
zone
defin
##que
gain
thirti
38
moon
##ard
adopt
christma
regist
apart
iran
premier
du
unknown
##les
##ff
quick
brigad
quiet
teach
cloth
impact
weapon
partner
flat
theater
suprem
37
##tor
suffer
wilson
kid
##age
internet
worth
background
quarter
kong
hong
75
architectur
diseas
railroad
inc
wish
arthur
harri
densiti
##di
crowd
illinoi
stomach
tone
uniqu
anyway
##ir
liber
der
vehicl
thick
dri
drug
theme
creation
strang
colonel
##mi
revolut
bell
silent
rail
relief
combat
shape
determin
sale
4th
oxford
heritag
fiction
distribut
##est
sight
interview
estim
reduc
##ria
toronto
damn
motion
sixth
##ze
en
rear
twelv
dress
audienc
brazil
##well
spirit
##ated
notic
etc
eric
tight
troubl
drink
vampir
rank
newli
wave
##ee
phase
massachusett
pilot
unlik
philadelphia
bright
crown
roof
42
respect
clearli
tongu
circl
fox
korea
bronz
brian
expand
sexual
suppli
yourself
inspir
labour
fc
##ah
vision
draft
brand
classic
trip
jesu
entri
neither
trail
atlant
labor
nose
afraid
identifi
intellig
cancer
stephen
imperi
grey
jason
39
sunday
48
swedish
avoid
extra
uncl
messag
surpris
fame
hunter
##ji
citizen
davi
environment
confirm
shit
di
##ov
exist
opportun
nor
shop
opposit
pakistan
##pa
realiti
##ish
bare
wine
convers
faculti
northwest
documentari
nuclear
stock
grace
eat
altern
##ps
bag
cemeteri
sarah
cricket
ride
exhibit
target
ear
explain
rain
injuri
occupi
netherland
clean
billion
constitut
maximum
franci
jose
ontario
bear
core
roll
drawn
perman
fun
##tes
##lla
lewi
chamber
ryan
##way
height
##house
lyric
55
snow
oldest
##tic
orang
##ger
qualifi
interior
appar
succeed
thousand
dinner
fan
heavili
41
greatest
conserv
send
bowl
plu
catch
##un
economi
duti
speech
princess
shall
poetri
desk
passeng
sharp
##ant
acr
ass
weather
fund
check
adult
cm
southeast
lane
##burg
applic
bc
##ura
prevent
display
ex
earl
cool
rel
obtain
portion
##town
##ding
reaction
dean
peak
##tte
counter
religion
chain
rare
miller
convent
aid
mobil
squad
wonder
crazi
sword
##ping
weren
philosophi
categori
##ize
anna
47
sweden
wolf
frequent
abandon
kg
literari
allianc
task
entitl
##ay
threw
factori
tini
soccer
matt
fm
achiev
52
defenc
persian
43
##ging
arrest
otherwis
cambridg
elementari
crimin
conflict
worri
signal
bird
truck
programm
##ol
49
communist
detail
faith
sector
patrick
##ss
korean
fuel
evil
##ent
brief
ident
address
pool
web
planet
ian
ann
invit
##tt
briefli
##be
climat
walter
wors
albert
desir
northeast
danger
gate
doubt
wooden
multi
##ky
poet
46
violenc
copi
prepar
ford
investig
skill
electron
##ak
##ial
##han
ultim
sing
restaur
tomorrow
fashion
christ
ward
da
pope
5th
flow
fresh
##per
wrestl
approv
employ
suit
frame
angri
sell
1950
thin
##nd
temperatur
statement
ali
inhabit
extens
narrow
51
jane
flower
promis
somewher
object
##ls
bureau
cape
weekli
presidenti
legisl
##ai
##au
##ny
##ring
artilleri
strike
un
chose
kevin
anymor
pp
##ut
attorney
fit
dan
billboard
agricultur
sought
dave
admit
mexican
##bury
charli
hole
iv
howard
credit
moscow
accid
prove
struck
hey
stuff
slid
expans
cat
anthoni
##kin
melbourn
oppos
sub
southwest
architect
failur
plane
##ron
map
camera
tank
listen
regard
wet
introduct
metropolitan
link
ep
fighter
inch
grown
gene
anger
fix
buy
dvd
khan
domest
worldwid
chapel
mill
##head
turkey
pocket
antonio
unless
circuit
18th
concern
attach
journalist
journey
convert
provinci
aren
neg
asid
knight
lap
survey
ma
##ow
nois
billi
##ium
shoot
guid
bedroom
priest
resist
motor
giant
##mer
equal
comic
patient
hidden
solid
afternoon
wed
canal
sr
kim
treati
turkish
recognit
cathedr
broad
knee
incid
norwegian
handl
cheek
contest
##pe
##sen
advantag
emerg
wrap
pink
##ong
somehow
bachelor
seventh
alan
assum
chemic
personnel
roger
jeff
portugues
wore
tie
devic
threat
progress
##ised
hire
manchest
nfl
forev
##bo
tenni
saturday
junction
hip
incorpor
neighborhood
ceremoni
##ds
visual
stair
decad
inner
kansa
hung
schedul
downtown
engag
austria
clock
norway
certainli
pale
victor
employe
plate
##ists
tropic
##ries
minnesota
philippin
54
retriev
anderson
gordon
vietnam
##dy
outstand
muslim
folk
demand
observ
lawyer
##ana
kelli
string
pleasur
budget
item
quietli
colorado
philip
##worth
deriv
surviv
mental
##ide
56
jake
jew
distinguish
ltd
sri
extrem
53
athlet
loud
shadow
arena
user
tim
contribut
dragon
dougla
awar
johnni
jordan
flag
invest
samuel
shock
capabl
clark
row
wheel
session
familiar
biggest
hate
maintain
drove
hamilton
request
injur
underground
walker
tunnel
stupid
softli
cabinet
indiana
##ea
##ms
spend
behavior
protein
gentli
chase
morgan
burn
wake
mirror
jimmi
inde
imposs
singapor
##nes
historian
wisconsin
invas
argu
painter
diego
egypt
##don
experienc
##ku
missouri
vol
spoken
switzerland
##gan
reform
forget
massiv
resign
allen
tennesse
lock
improv
##mo
wound
sick
pack
##pur
##ul
merg
anniversari
coal
brick
understood
dynasti
queensland
crisi
refere
##si
arizona
coloni
formal
##rt
palm
lucki
hide
rescu
95
juan
##ell
6th
weekend
59
luke
cash
fallen
##om
deliv
affect
instal
swiss
hollywood
lincoln
##he
shore
file
proper
maryland
jump
constant
friendli
trophi
partnership
factor
58
musician
cri
bound
oregon
indic
hero
houston
medium
##ure
somewhat
##ara
57
cycl
##che
beer
moor
frederick
gotten
eleven
worst
weak
arrang
chin
loan
bond
fifteen
pattern
disappear
##ney
translat
##zed
arab
insur
##chi
shift
cave
prix
warn
coat
plot
smell
feed
golf
favorit
knife
vs
financ
quebec
opinion
manner
choos
discoveri
confus
tire
stream
techniqu
commit
throw
measur
horror
sand
salt
calm
dam
runner
##ik
rush
greec
##ker
consecut
matthew
##ski
sigh
sq
document
steam
accus
##ini
islam
organis
bruce
7th
mad
lit
concret
tast
08
composit
shake
faster
amateur
adjac
twin
flew
##ran
tokyo
##tone
obvious
ridg
storag
carl
conclud
desert
driven
termin
sequenc
borough
constitu
creativ
cousin
margaret
montreal
mode
17th
jan
##ica
andi
##jo
roughli
threaten
##ise
meter
meanwhil
repeat
grass
czech
regularli
tea
sudden
appeal
##ung
solut
pierr
classif
glad
##ning
belt
99
rachel
add
hungarian
expedit
gift
childhood
85
fifti
##red
mathemat
mph
##ux
##gh
##hip
smoke
isra
kentucki
grandfath
emma
profit
argentina
##gs
truli
li
lawrenc
cole
begun
detroit
miami
enjoy
##dale
poverti
ethnic
gay
##bi
gari
09
accompani
##one
##ons
residenti
acid
##ary
alic
mail
##ang
jonathan
strategi
##ue
net
forti
cook
equival
commonwealth
distinct
ill
##cy
serious
##ors
##ped
rio
imagin
formula
ensur
##ber
scheme
occasion
favor
##and
##ore
1930
contrast
hang
hunt
instrument
victim
danish
christoph
demon
sugar
earliest
balanc
##ks
belgium
slip
carter
05
visibl
iraq
fifa
##im
zero
07
legend
bathroom
option
tail
clay
afterward
jaw
visitor
##ded
aviat
russel
kate
##vi
##ino
temporari
swim
forth
smooth
ghost
audio
bush
eddi
##tz
honorari
06
dalla
pure
racial
66
harvard
ceo
16th
parliamentari
benefit
flesh
dublin
louisiana
membership
coastal
mediev
scholar
rice
62
makeup
definit
collabor
obviou
##tan
boss
ms
baron
birthday
soil
dioces
##lan
ncaa
##mann
offens
shell
shouldn
waist
##tus
plain
ross
resolut
manufactur
kennedi
98
whilst
moth
crash
72
carlo
cabl
##zi
marshal
##out
depend
bottl
reject
respond
04
denmark
##ating
treat
graham
talent
commission
reign
restor
photographi
##gi
oklahoma
disc
grin
seattl
robin
paus
atlanta
unusu
##gate
prais
satellit
hungari
##sky
deck
poem
norman
##water
stuck
speaker
rifl
domain
##her
dc
01
reput
elimin
8th
ceil
script
##nce
leather
austin
mississippi
rapidli
admir
parallel
charlott
guilti
tool
gender
fruit
##bs
laboratori
nelson
fantasi
rapid
aunt
tribe
aspect
suicid
amongst
bone
ukrain
abc
kick
edinburgh
column
rough
broadway
gather
##ek
ty
12th
snap
solar
cavalri
##tta
iowa
wast
index
franklin
chariti
thompson
stewart
tip
flash
landscap
friday
singh
##back
eighth
fred
adapt
bomb
ukrainian
surgeri
anywher
##more
odd
sean
portug
orlean
dick
debat
kent
puerto
96
cinema
97
guitarist
depth
panel
struggl
##ged
peninsula
vienna
metro
shoe
tamil
songwrit
instanc
heaven
scare
passag
superior
03
significantli
##tive
retain
##izing
malaysia
##ola
warren
mainten
alli
##yn
advic
alabama
cleveland
hat
batteri
smart
10th
soundtrack
lb
coalit
funni
outer
ambassador
roy
campbel
dna
loos
ethan
gonna
88
monster
##res
frequenc
61
gang
plastic
easier
gulf
blade
expos
pan
nervou
elector
ownership
##idae
mac
shield
assault
socialist
abbey
monument
licens
throne
jay
93
charter
cloud
oak
connecticut
strongli
wright
colour
crystal
13th
context
welsh
gabriel
jerri
##cing
forehead
mp
##ens
remix
##ii
occup
print
nichola
brazilian
strateg
76
root
seek
correct
und
alfr
hop
##des
stanley
robinson
wayn
welcom
austrian
67
exit
strip
wherea
##cs
deepli
adventur
bobbi
rick
jami
compon
cap
##shi
02
protest
ca
ottoman
symphoni
##sis
63
boundari
consider
ton
##work
##ft
##nia
cooper
dear
91
illeg
appl
revolutionari
holiday
harder
##van
jacob
circumst
destruct
##lle
grip
classifi
liverpool
donald
baltimor
honour
92
mechan
till
increasingli
commerc
##ster
indonesia
meat
baker
orthodox
depress
worn
nake
clair
mutter
sentenc
11th
emili
77
vessel
spiritu
bent
virgin
parker
minimum
murray
lunch
danni
compil
keyboard
fals
blow
belong
68
78
##board
pittsburgh
##up
9th
81
indigen
jon
15th
barri
ah
##zer
oliv
##gy
stick
susan
attract
spell
romant
##ver
photo
custom
##ac
logan
reviv
modifi
##ious
upset
raw
phil
detect
vincent
##bly
diamond
coverag
luca
extern
franchis
helen
bibl
successor
percuss
celebr
il
profil
clan
romania
##ied
##su
nobodi
shrug
fault
rhythm
breakfast
carbon
69
violent
74
ken
killer
gradual
°c
dollar
94
sang
chemistri
##vin
legislatur
disney
##bridge
uniform
integr
purpl
deni
liquid
karl
influenti
morri
intens
experiment
twist
71
84
##ld
pace
nazi
mitchel
ny
blind
14th
basin
forgotten
monasteri
manual
couch
descript
appropri
mere
tag
sebastian
tripl
73
elder
julia
warrior
benjamin
julian
convinc
stronger
amaz
declin
versu
merchant
output
finland
barbara
absenc
ignor
dawn
##port
##ram
82
lui
##ities
kw
expens
nba
symbol
##ving
shower
sheriff
characterist
##je
aim
button
ratio
summit
angl
juri
foster
pant
evan
dozen
advertis
patrol
lifetim
principl
##logy
birmingham
sponsor
89
rob
acoust
##sm
creatur
longest
##tra
harbor
dust
josh
##so
milk
infrastructur
thailand
leon
archbishop
##sy
pitch
blake
girlfriend
serbian
henc
sad
scent
fur
dj
hp
##ora
##ten
scientist
dirti
penalti
burst
portrait
seed
79
pole
rival
stabl
alpha
grave
alcohol
mysteri
devil
greatli
habitat
##istic
larri
remot
cotton
##ics
##ok
preserv
##ming
cite
86
vast
scholarship
cb
joy
knock
eve
partli
gap
fate
excel
##ett
na
87
youngest
##ily
climb
##ita
##tors
##ct
discuss
choir
jacket
revenu
nevertheless
neil
terri
##ice
clinic
brooklyn
catherin
fuck
farmer
ninth
pride
hugh
evolut
ordinari
comfort
shout
tech
encourag
taiwan
represent
##lia
##em
panic
exact
cargo
fat
83
1920
occas
pa
cabin
utah
marcu
##isation
badli
muscl
##ance
victorian
transit
warner
bet
permiss
##rin
slave
terribl
similarli
seth
uefa
possess
perfectli
mall
##ye
##kar
##ened
harrison
elev
##ae
asleep
ash
hardli
argument
leo
##ua
concentr
hispan
guardian
extent
emot
mason
bloodi
controversi
diamet
steadi
mistak
phoenix
violin
##sk
departur
richmond
spin
funer
gear
liter
connor
random
sergeant
transmiss
op
sacr
suspend
portland
luck
hull
expert
layer
sculptur
jerusalem
latest
lloyd
statist
deeper
recommend
arkansa
mess
greg
eagl
recov
##ano
egg
keith
##vo
delhi
turner
pit
belief
##zing
mate
##ach
##ev
##ology
withdrew
bonu
fled
##ud
glasgow
nbc
##ata
portray
bernard
justin
hallway
ralph
##ick
distant
continent
spider
bite
##ho
intent
##ese
egyptian
bow
tourism
tiger
domin
vi
##ru
nurs
partial
tape
##rum
psycholog
##rn
essenti
duo
civilian
##king
hebrew
tommi
carrier
intersect
beast
hudson
##gar
##zo
lab
nova
bench
costa
##ered
behalf
unfortun
##lis
rocki
##dae
sieg
friendship
honey
##rian
ami
collin
wildlif
prefer
##po
laura
pregnant
denni
suspect
boot
instantli
weird
automat
businessman
alleg
ph
mood
perri
venu
jet
remaind
##lli
##ci
passion
biolog
boyfriend
dirt
buffalo
ron
segment
fa
abus
##era
genr
thrown
stroke
stress
exercis
##gen
##tti
abroad
dramat
thereaft
madrid
widespread
##sed
tale
todd
monday
vancouv
oversea
descent
##ris
substanti
regim
switch
zane
ted
proof
lp
cream
volunt
manor
silk
milan
donat
ventur
deliveri
enterpris
##ves
##ans
witch
remind
copper
##uk
pete
inter
colin
elsewher
##oy
scream
##hu
tension
submarin
finnish
defend
pat
affili
stuart
villa
belgian
fold
resort
demolish
han
luci
lion
photograph
craig
##fa
beth
nobl
debt
percentag
yorkshir
erect
ss
confid
ceas
telephon
retail
##ible
chile
m²
sixteen
##ich
comment
hampshir
innoc
dual
pound
regul
afghanistan
sung
rico
liberti
asset
bigger
releg
tribut
leaf
##yan
butler
romanian
forum
monthli
lisa
gmina
##tory
madison
hurrican
rev
##ians
bristol
##ula
elit
valuabl
disast
democraci
freyja
##ins
loop
absolut
sole
prayer
spencer
doorway
bull
##ani
lover
midnight
conclus
##sson
thirteen
lili
mediterranean
##lt
nhl
proud
sampl
##hill
drummer
guinea
##ova
murphi
##ston
instant
attribut
horn
ain
steven
##ao
autumn
ferri
oppon
corridor
stretch
sheet
triniti
cattl
manhattan
gentl
grandmoth
vega
##light
caribbean
##ou
desper
drunk
trio
raf
nathan
bat
murmur
interrupt
pioneer
harold
aaron
##net
delta
mini
choru
tend
indoor
load
updat
jail
##llo
wealth
##ved
ranger
suffici
rebuilt
##wick
cardin
flood
muhammad
whenev
moral
repair
viewer
reveng
punk
bath
fairli
inning
illustr
nearest
voter
clinton
beij
andr
radar
suitabl
dismiss
hm
ban
pine
wrist
atmospher
voivodeship
bid
timber
##ned
##nan
##ane
cameron
recoveri
uss
serbia
laughter
noah
ensembl
therapi
##off
pearl
everywher
ballet
lanka
herbert
outdoor
derek
swept
exclus
slight
##dra
bangladesh
tube
publicli
wealthi
thai
##ys
isol
##ric
insist
pen
fortun
ticket
reportedli
enforc
wider
lowest
owen
##time
##hn
gregori
furthermor
##ery
peru
reed
chancellor
mask
eldest
flame
reduct
##tis
##hl
wire
advisori
endem
settler
pursu
consum
eu
compound
mansion
ivan
deploy
frown
kilomet
perspect
terminu
duncan
alien
fist
##pers
fed
derbi
swallow
##ros
patent
sara
character
slide
hawaii
jurisdict
##op
##side
adelaid
se
##ties
swing
tightli
##rie
implement
stolen
##sha
certifi
colombia
garag
##mm
recal
##ball
rage
harm
nigeria
breast
##ren
furnitur
pupil
##lus
cuba
client
alaska
21st
linear
thrust
latino
genet
terror
##cia
##ening
lightn
fee
wit
lodg
skull
##ique
hood
##ei
rebellion
wang
missil
devot
activist
porch
worship
fourteen
packag
decor
##shire
##ock
chess
sail
oscar
joan
garcia
harbour
jeremi
##ire
jacqu
##gon
##wan
reloc
amend
companion
simultan
volleybal
spun
toss
scout
shove
munich
tenur
vertic
romanc
pc
##cher
##ical
craft
www
honest
tyler
yesterday
virtual
##let
snake
immigr
radic
eas
prefectur
blame
hungri
rub
beam
sur
subsidiari
##cha
armenian
sao
##fer
microsoft
sweat
##ken
physician
exposur
sandi
explan
isaac
##fish
hart
stake
tourist
regardless
closest
##ction
sultan
riley
aboard
slam
baptist
ongo
interst
playoff
##ika
##tar
hindu
error
tier
plenti
trap
excit
sank
ho
athen
denver
welfar
suburb
trick
divers
belli
yell
##med
##ette
conductor
sensit
hello
disput
globe
rocket
amsterdam
inn
3d
##mus
airlin
pm
archaeolog
interpret
devon
##ites
impress
barcelona
sullivan
jefferson
jess
##tin
##lu
grandson
gaug
trace
raymond
thumb
serial
bulgarian
demonstr
##ix
kyle
alberta
underneath
##ward
reliev
acquisit
phrase
cliff
merger
##dar
nee
gilbert
##nts
assess
cafe
difficulti
swung
jennif
1940
grove
##yo
sum
substitut
recept
##py
reflect
destin
##ched
##bach
##down
##fully
parad
florenc
harvey
incumb
framework
pedro
frozen
procedur
olivia
##mic
shelter
##od
brisban
marbl
comprehens
oxygen
leonard
##kov
inaugur
iranian
attitud
##ivity
mainstream
mar
dakota
norfolk
unsuccess
##°
explos
helicopt
congression
##sing
inspector
bitch
seal
divin
##ters
examin
punish
sink
unincorpor
nevada
squeez
dylan
dine
martial
manuel
eighteen
brush
ivi
congreg
##len
slept
curv
restrict
negoti
arnold
bold
intermedi
margin
ruler
gothic
intellectu
elig
buse
widow
syria
cincinnati
collaps
recipi
maritim
goddess
clerk
surrend
databas
##ified
##lon
ideal
beetl
soap
anglo
shorter
retreat
tough
coin
wallac
##oon
locomot
comparison
topic
nephew
##mes
sierra
ibn
##over
fortress
sa
recognis
carv
##dan
##mar
bread
##ington
beaten
northwestern
##ona
merit
youtub
em
submit
viru
drake
##ere
marc
stem
leed
##cus
##ab
##lock
nowher
fellowship
relev
constantli
shah
tenth
vers
##ira
corrupt
##hs
instruct
inherit
revers
emphasi
##vic
arch
rabbi
watson
payment
uh
##ala
nanci
##tre
venic
fastest
sexi
adrian
properli
ruth
touchdown
favour
ok
scatter
firmli
##ular
holland
permit
diesel
kenya
den
##ral
resum
drag
rider
##rus
servant
blink
torn
##ias
##sey
input
meal
everybodi
cylind
##fe
bullet
logic
##wn
croatian
evolv
healthi
fool
chocol
wise
pradesh
##ess
##ew
chicken
artifici
gross
correspond
convict
cage
carolin
dialogu
##dor
narr
stranger
mario
br
trent
buddhist
mauric
yale
bike
altitud
##ering
mous
revis
##sley
veteran
##ig
theolog
legion
##ability
cancel
excus
##lar
liga
##burn
variabl
##rk
curiou
bin
legaci
renaiss
##my
symptom
bind
vocalist
dancer
##nie
grammar
gospel
ya
sc
diplomat
hitler
##ser
orient
##heim
fundament
hardwar
confeder
guilt
chuck
##ware
magnet
petersburg
bulgaria
otto
phd
##ama
reader
pitcher
reservoir
bennett
monitor
##ative
signatur
ranch
encount
##pin
##hr
calendar
##all
cruz
croatia
shakespear
basement
hook
uncredit
fade
dare
phillip
furi
obama
##ain
effici
arc
min
raid
breed
induct
axi
montana
##ked
karen
anchor
tomb
vari
newcastl
faint
innov
claud
mixtur
##feld
peer
tissu
logo
##ration
°f
##ven
##our
##ments
rope
ottawa
##har
francoi
saudi
advoc
armor
divorc
##ras
abraham
jo
temporarili
matrix
puls
curl
##ena
bengal
usag
##ban
anni
certif
##pi
warsaw
jessica
##mon
mutual
circular
eugen
vulner
depict
dame
heir
enorm
lightli
lesson
nepal
ram
googl
brad
louis
renown
##₂
liam
##ably
plaza
shaw
sophi
brilliant
##bar
##nik
mainland
server
pleasant
seiz
jerk
beta
radiat
warmth
southeastern
nate
sin
berkeley
joke
trunk
##low
roland
qualif
archiv
heel
artwork
judici
##bed
woke
abu
float
fake
lesser
interfac
amanda
saxophon
monk
auto
##bus
interact
ce
outbreak
glori
##bert
sequel
conscious
http
awak
ski
enrol
##ress
rooki
brow
somebodi
biographi
warfar
fabric
dissolv
lt
ralli
accur
##tha
undergradu
specialist
venezuela
shed
fluid
footag
jare
prey
##ska
exil
lebanon
wipe
shanghai
marvel
variant
pirat
sheep
capita
manuscript
deem
variat
relax
curs
azerbaijan
heavyweight
nicknam
editori
grid
tighten
earthquak
miguel
##ches
brook
consumpt
molecular
felix
repeatedli
civic
graphic
realm
autonom
delay
workshop
militia
trump
canyon
##point
harsh
##jan
eyebrow
embassi
wellington
hannah
##ella
soni
swear
xi
commenc
stanford
nashvil
courag
garrison
##bin
hamlet
rebel
literaci
ruin
jenni
hasn
freight
sixti
bastard
##art
newton
##ada
deer
##ges
##ching
delawar
##ets
##ph
boulevard
barrel
##ome
pursuit
##sia
consequ
shallow
rode
depot
ernest
kane
rod
preston
blast
descend
montgomeri
##lay
##ari
span
chao
##ag
fewer
sanctuari
mud
fbi
##ions
uniti
harper
bore
handsom
closur
thunder
nebraska
linda
facad
satisfi
argentin
dale
cork
dome
panama
##yl
##ates
equat
##las
##ida
##tu
bryan
##ax
um
quartet
melodi
disband
sheffield
gasp
maggi
##non
pour
creator
##we
elli
extinct
hug
##ord
complic
##bility
poll
clench
##use
therebi
quantum
spine
cdp
humor
administ
semifin
##du
##bu
commentari
##maker
bother
roosevelt
halfway
crack
imprison
neighbor
##ses
##view
##mate
##ec
wolv
marathon
transform
##ill
cruis
carol
punch
alarm
daddi
##stein
guidanc
liu
tactic
##rat
della
arrow
##ings
tender
bitter
advisor
escort
##ides
spare
##ene
colleagu
##und
suck
pile
pragu
suspens
landmark
fenc
tortur
recreat
survivor
pond
spi
predecessor
coup
##og
glow
##lands
##book
dug
andrea
feat
barn
##chen
##ologist
##con
casualti
stern
auckland
pipe
ba
##bel
trevor
merci
spectrum
yang
epic
compris
blew
shane
##ack
lopez
sacrific
judgment
perceiv
hammer
mtv
baronet
tune
missionari
neutral
oral
shade
seminari
##master
michel
refuge
##nic
mercuri
syndrom
porter
##iya
##din
hamburg
identif
upstair
purs
widen
santiago
celtic
fisher
recruit
byzantin
reconstruct
farther
##mp
diet
sake
au
spite
sensat
##ert
blank
##hon
vladimir
##lie
accommod
orbit
cult
sofia
##ify
##box
sustain
disord
northeastern
mia
crop
violet
blanket
canton
southwestern
prototyp
voyag
alter
moder
protocol
pistol
##eo
brass
math
##ual
doug
dimension
dynam
##san
pronounc
grate
quest
uncomfort
boom
chen
barrier
quinn
diana
mosqu
tribal
chees
palmer
chester
treasur
wu
bend
download
registr
##osa
ate
preliminari
brandon
invent
ps
eaten
exterior
intervent
log
lectur
salli
favourit
##itz
vermont
invis
isl
##ator
relay
backward
explor
midfield
stefan
cannon
blond
kenneth
malcolm
essex
slaveri
##hal
fairi
cassi
wash
cop
##fi
2000
vinyl
marco
frontier
growl
curriculum
##das
loyal
accomplish
lesli
ritual
kenni
##00
vii
napoleon
hollow
hybrid
jungl
friedrich
##ulated
platinum
theatric
col
rubber
glen
heal
id
provis
columbu
##oe
tributari
te
assur
org
##uous
prestigi
grammi
ronald
bailey
allan
essay
flute
consult
proceed
kit
kerala
yugoslavia
buddi
methodist
##ith
burial
batman
##nda
discontinu
bo
dock
stockholm
lung
##nk
manga
##ugh
steal
mumbai
iraqi
robot
bride
abolish
pot
joel
overhead
franz
reconnaiss
johann
acknowledg
alley
palestin
##nis
##aki
bradley
grain
patch
afford
infect
nationalist
legendari
##ath
interchang
gen
graviti
amber
vital
powel
doctrin
elbow
screenplay
##bird
indonesian
pet
##com
enzym
kyli
disciplin
manila
hunger
##ien
fever
monica
##hood
##bad
testament
reid
##war
congo
##ification
##dia
si
##via
casey
regret
streak
rape
syrian
sprint
upcom
pub
##xi
tens
##els
echo
nationwid
guild
motorcycl
liz
##zar
elena
bye
preciou
absorb
booth
pianist
##mal
citizenship
exhaust
wilhelm
##ceae
##hed
quarterback
urg
hectar
##gue
ace
holli
##tal
twentieth
airfield
galaxi
nest
chip
##nell
tan
shaft
paulo
##zy
paradis
tobacco
tran
renew
vietnames
##cker
##ju
holm
md
colt
holder
butterfli
nerv
cherri
trailer
carriag
goodby
appreci
toy
joshua
enabl
##kan
collar
bunch
facebook
superintend
episcop
frustrat
giovanni
nineteenth
laser
array
circul
##ovic
armstrong
discrimin
##wi
cottag
ni
##sta
horizon
ellen
jamaica
rip
fernando
playstat
patron
navig
behaviour
georgian
export
solomon
swift
seventeen
rodriguez
princeton
sox
entiti
hank
criteria
oakland
geograph
milwauke
conquest
dub
##tv
halt
brave
brunswick
doi
curti
predominantli
somerset
ugli
zoo
horribl
bueno
fierc
dictionari
vector
stabil
chan
punjab
##lly
altar
gestur
pastor
##stone
thigh
unexpect
abruptli
migrat
pin
##ose
compact
collegi
##urs
quarterfin
roster
hurri
oval
##cies
martha
##del
sharpli
##rated
deadli
neo
##iel
griffin
java
arabia
dee
pierc
hindi
casino
runway
nasa
##zation
refug
rent
suburban
##tto
##tions
##tle
massacr
##cal
ammunit
terrain
fork
chelsea
durham
cab
##bank
perth
palestinian
finn
simpson
##dal
betti
##ule
moreov
particl
tent
evalu
extraordinari
##oid
inscript
##works
wednesday
chloe
ashley
##nation
cluster
sunlight
zhang
##wing
dialect
canon
##ap
tuck
##ws
##mas
##can
##sville
maker
quot
franco
aria
eva
closet
apollo
rat
##ez
necessarili
ac
##gle
##ising
flip
cent
truste
##sco
disappoint
##ado
notion
durat
trumpet
hesit
brussel
theoret
hint
aggress
optic
width
allegedli
mcdonald
strict
copyright
##illa
investor
jam
miranda
privaci
hugo
harmoni
##pp
valid
lynn
glare
nina
dive
gibson
##ncy
albanian
marsh
routin
dealt
enhanc
er
substanc
enlist
piss
rebecca
capitol
visa
costum
seemingli
indi
compens
surgeon
thursday
arsen
westminst
rid
anglican
##ridge
knot
alumni
lighter
fraser
whoever
portal
scandal
##ray
gavin
advis
instructor
terrorist
##ale
teenag
interim
duck
teen
thesi
abbi
eager
overcom
##ile
newport
glenn
shame
##cc
prompt
prioriti
forgot
bomber
nicola
cartoon
katherin
breez
lone
henderson
richardson
banner
candi
remark
##rio
ordain
edmund
trigger
##uri
##away
alert
penn
sussex
sibl
indianapoli
rosa
##ulation
inland
##tie
##nna
counsel
profess
chronicl
##una
bleed
cure
##dom
con
scope
hardi
heather
tenor
gut
herald
tore
wagon
##oo
luxuri
tin
fountain
triangl
darl
convoy
troy
accident
joey
outcom
steep
bosnia
configur
toll
lobbi
philosoph
shrine
aggreg
cox
phenomenon
savag
insan
reynold
lifestyl
##ima
edgar
mo
mama
##tein
atom
hub
conjunct
awkward
currenc
kumar
underw
steer
elabor
melissa
vein
sunshin
chi
solv
ethic
huh
ana
molli
consent
layout
##ces
bulk
##oma
hometown
##wall
##mont
neighbour
withdrawn
admiss
wingspan
antholog
lancashir
forgiv
cuban
aw
##lyn
dimens
##ade
dant
##ship
goalkeep
##yne
groan
burton
gerald
milton
circu
uncertain
slope
copenhagen
sophia
fog
accent
larva
garrett
specifi
scotia
matur
luther
kurt
rap
##kes
aerial
ferdinand
es
##shan
nonetheless
##orn
##gal
##sburg
startl
##brook
ghana
stain
demo
ap
diari
##bling
util
##iro
conspiraci
consciou
shine
footstep
cypru
loyalti
upgrad
gym
miracl
insect
ourselv
hydrogen
amazon
kati
##pm
##pan
dens
jin
randi
tang
warehous
monro
bang
elderli
alec
granit
miner
aborigin
##zu
stan
stark
rhode
skirt
est
##berry
##horn
impos
limeston
nomine
memphi
disabl
##als
amus
aa
frankfurt
corn
referendum
disk
unconsci
incred
clue
sue
##zhou
##cio
idaho
chad
mortal
tucker
kingston
yu
carson
os
whitney
geneva
pretend
plateau
maya
##une
freestyl
##bc
rover
hiv
##ids
tristan
classroom
prospect
##hus
honestli
diploma
thermal
auxiliari
feast
iata
##tel
morocco
treasuri
lithuania
dish
geolog
stumbl
brien
cake
nicol
##mie
tuesday
bassist
stun
fraud
torpedo
##list
##phone
anton
wisdom
surveil
##ulate
lawsuit
healthcar
theorem
trend
aka
horizont
hawk
gorgeou
vicin
decreas
##ography
pakistani
##ole
##hall
willi
burk
heath
algorithm
powder
elliott
brigadi
jacki
tate
darker
##cho
cigarett
specimen
##ree
##ensis
##inger
explod
finalist
cia
wilder
onward
robertson
tampa
blog
loudli
ai
malta
inquiri
automobil
viii
tilt
grief
furiou
euro
cohen
poison
surrey
wireless
ridicul
mose
##esh
##room
vanish
##ito
morrison
istanbul
##iness
absent
rotat
petit
janet
##logical
satisfact
custodi
deliber
observatori
comedian
pinyin
novelist
strictli
canterburi
oslo
embrac
ibm
jealou
contin
dorothi
marina
doc
excess
holden
stack
lanc
storylin
majesti
poorli
spike
bradford
raven
travi
proven
voltag
pillow
butt
##car
gage
telegraph
len
expel
casual
collector
##min
silli
nintendo
##kh
##bra
downstair
chef
suspici
afl
vacant
uganda
pregnanc
condemn
lutheran
cheap
decre
saxon
proxim
idiot
deposit
contrari
magnu
glacier
im
edwin
##ori
upright
##long
bolt
##ois
##izes
delic
abstract
xavier
nail
windsor
plantat
equiti
saskatchewan
drift
veget
revolt
##stic
sooner
fusion
nato
skate
secretli
leas
##oc
##nne
flora
anxieti
rubi
##ological
##mia
tel
bout
taxi
emmi
frost
rainbow
rainfal
assassin
nightmar
dominican
##win
deserv
orlando
intact
armenia
##nte
calgari
valentin
marion
proclaim
theodor
courtyard
gonzalez
consol
minim
mont
everyday
##ence
##if
buck
openli
presbyterian
carpet
##iers
upris
##yi
cute
conceiv
##cht
millennium
cello
veloc
ji
cardiff
rex
beard
render
competitor
sculptor
catalogu
arctic
ion
raja
bicycl
wow
lawn
##woman
gentleman
lighthous
predict
calcul
##val
##gne
strain
##ui
winston
deceas
##nus
bradi
caleb
crush
hon
bless
protagonist
hay
endang
magnitud
##tine
##mel
backup
zurich
##eau
ahm
mit
biblic
terrifi
pump
genuin
plymouth
##hen
lou
##nen
tara
trembl
antarct
##tas
crap
crucial
faction
atop
##borough
lancast
hopkin
erik
lyon
##eon
bro
##ode
empress
cal
acclaim
chuckl
##ory
clara
mild
towel
##fl
##day
##а
##bal
##die
eden
helena
##lf
beck
##fire
filipino
wizard
##lam
##born
idol
albani
deleg
##ees
##sar
##ex
notr
belgrad
lauren
alexandria
abdul
salari
reunion
ludwig
alright
wagner
intim
slovenia
brighton
cruel
stole
trek
underli
boe
##bb
isabella
##и
keen
bacteria
belfast
ussr
lithuanian
anybodi
rib
sphere
martinez
cock
embarrass
fragment
##fs
##wski
premis
fin
alpin
freeli
jace
sleev
##af
pier
##like
##dle
frighten
trainer
pig
wicket
##fold
email
##pes
aros
##aw
reward
ecuador
oblast
vale
ch
shuttl
##usa
bach
forbidden
cornwal
salem
bruno
fantast
toe
machineri
resolv
juliu
propaganda
iceland
bombard
tide
wive
##rah
concerto
macdonald
albania
daisi
tap
sudan
helmet
angela
mistress
##lic
sunk
finest
##craft
hostil
##ute
##tsu
boxer
fr
adjust
habit
ballot
supervis
soprano
##zen
wick
sunset
lamp
app
##gia
##oa
rabbit
dig
##cion
##oi
##ati
##fied
freshman
slot
jill
tackl
baroqu
##iest
destini
altogeth
##aro
consensu
feminist
auction
artifact
##bing
strongest
twitter
halifax
allmus
mighti
smallest
precis
alexandra
viola
##los
##ille
##illo
ari
barrack
springfield
maiden
consolid
##end
berri
wheat
nobel
inclus
blair
geographi
bee
cc
eleanor
react
##hurst
afc
manitoba
##yu
su
lineup
airborn
##dis
edmonton
##row
renov
##cast
infant
bankruptci
aftermath
pavilion
##yer
carpent
withdraw
ladder
##hy
reliabl
rochest
##abad
rao
reverend
stiff
napl
crawford
traci
ka
ribbon
##lee
unifi
flagship
sanchez
inspect
induc
flee
tragedi
hanna
##ela
salvador
flown
##ines
wanna
fletcher
hector
##ough
nash
walt
unclear
##eus
madam
##cks
government
##hin
undertaken
monkey
##ben
##ato
fatal
copa
grasp
percept
froze
damp
tug
wyom
##rg
##ero
newman
##lor
curios
graph
##ami
dull
meredith
moss
accuraci
raider
secular
kat
superman
penni
criticis
##tch
freed
wade
ham
likewis
gotta
doll
myth
##mark
sharon
sip
coordin
entrepreneur
##dine
councillor
synonym
blown
swan
jona
sofa
canva
keeper
rivalri
##hart
rapper
speedway
postal
maxwel
estonia
potter
recur
##nn
##ave
##oni
cognit
##²
claw
nadu
roberto
bce
wrestler
##ations
infinit
ink
##tia
presum
finit
staircas
noel
patricia
nacion
##cation
chill
etern
tu
prussia
fossil
limb
##logist
ernst
frog
perez
rene
##ace
pizza
prussian
##ios
##vy
molecul
regulatori
sworn
supposedli
hypothesi
upward
ancestor
drank
yield
hd
synthesi
modest
##var
voluntari
homeland
##the
##igan
static
valv
luxembourg
alto
carrol
fe
receptor
norton
ambul
##tian
johnston
jointli
eleph
gloria
mentor
badg
ahmad
allison
##10
ankl
merced
dagger
pollut
subway
jeffrey
##fication
membran
timothi
rectangular
fiscal
teammat
basket
anonym
##ple
courthous
proport
sec
##ller
complaint
forb
overwhelm
autobiographi
natali
##awa
countrysid
scorer
invad
enclos
hurl
##cu
cruiser
freeway
ore
maid
jorg
dove
mann
burden
que
provision
complain
endless
##rm
juic
krishna
mick
thriller
##uch
arcad
sage
snail
##table
shannon
fi
laurenc
seoul
vacat
churchil
surprisingli
prohibit
savannah
##oli
##lessly
testimoni
mlb
kay
charleston
shatter
triumph
portsmouth
mandatori
loser
cologn
seventi
cornel
webb
##ulating
budapest
ava
suspicion
##ison
yo
conrad
##hai
sterl
jessi
rector
##az
christin
volcan
warrant
slender
subfamili
newer
rhine
proce
heinrich
gastropod
facilit
easter
ra
yank
25th
velvet
vic
primit
tribun
baldwin
neighbourhood
donna
pr
##uro
espn
##aria
highland
##cted
geometri
louder
slovakia
##sion
##iz
##lot
prairi
##ques
rafael
tonn
##lled
curtain
preced
shi
worthi
##pot
detach
sherman
##eck
reinforc
duchess
outfit
walsh
##sc
mickey
##ase
geoffrey
archer
dawson
##enberg
neal
##eth
stanc
dealer
coral
mapl
polo
simplifi
##ht
hid
watt
jule
##oke
genesi
mt
rebound
burma
woodland
moist
santo
drain
subspeci
##aa
ulster
burnt
matern
gerard
##load
geniu
duchi
##oria
momentum
placement
sovereign
claus
thame
##hara
sketch
yanke
rotten
charm
hal
ultra
dot
salon
citat
winnipeg
mist
alloc
cairo
##boy
jenkin
interfer
##wind
portfolio
armour
##eh
##world
robe
ab
##tones
distract
jerom
cart
##eri
gravel
charit
##try
calvin
shepherd
terrac
pdf
##ural
##rch
shelf
##nberg
crest
##nian
##ats
hatr
##kai
clare
ethiopia
longtim
embed
slap
reli
thomson
anticip
iso
morton
agn
screenwrit
straighten
philipp
playwright
haunt
licenc
iri
sutton
correctli
##weight
lick
silva
ricki
narrat
##ents
greet
supernatur
cow
##wald
strait
gaelic
liner
##piece
zoe
sabha
##mba
driveway
harvest
bate
reluctantli
threshold
algebra
ira
wherev
assumpt
##air
gentlemen
##ean
roller
leipzig
screw
strand
##lings
scar
dwarf
##nu
##mine
bori
##eur
yuan
##gie
mob
##ture
##sel
gameplay
rehabilit
##of
##zes
envelop
rumor
leicest
subtl
kerri
##ico
ferguson
##fu
premiership
ne
##cat
bengali
prof
remnant
dana
##rily
baltic
ought
sailor
shirley
fanci
##bie
madonna
##rick
bark
gymnasium
liver
tobi
oath
doyl
evangel
nixon
cement
carnegi
embark
hatch
guarante
essenc
##bee
filter
crane
hammond
immun
perci
twelfth
##ult
regent
damon
mikhail
##ichi
lu
realis
abort
acut
mytholog
steadili
##fc
nottingham
kirk
minneapoli
##rra
modul
algeria
mc
nautic
pie
alma
munster
mack
soup
crater
tornado
sanskrit
cedar
dixon
stamp
exam
happili
##bble
kidnap
##vis
emigr
##met
knockout
violat
lang
agenda
ancestri
potteri
ki
debri
asylum
##20
buddhism
teddi
##ants
gazett
##nger
##sse
dental
utc
zimbabw
francesco
hiss
lynch
mandat
mackenzi
lin
##iana
##gio
mhz
samantha
genera
wei
rim
belov
shark
riot
indo
carmen
owe
abbot
sidney
##av
conquer
##oto
diagnos
##mond
##iva
vernon
auditorium
revel
##kers
##power
herzegovina
dash
alik
herman
accredit
mg
##gent
freeman
mel
fiji
crow
crimson
##rine
livestock
##pped
humanitarian
oz
whip
##lene
##ali
legitim
anxiou
wesley
##nin
##hole
carniv
##ssa
kosovo
macedonia
##sin
stephani
janeiro
para
unawar
noon
cam
sociolog
polar
rica
##eer
neill
##sman
holocaust
##ip
lust
decent
unveil
##card
nsw
homer
chapman
meyer
##gin
mae
reagan
expertis
##gled
darwin
prosecut
petroleum
reluct
trilog
corps
highlight
loung
pension
eleg
ivori
beatl
amelia
cain
dubai
sunni
babe
click
##nder
underwat
pepper
mumbl
atla
ballad
homeless
rpm
freak
louisvil
patriot
ration
overnight
din
phantom
##ort
monarch
sheer
##dorf
guidelin
##zon
cord
##kie
linux
caesar
deutsch
bavaria
##bia
coleman
cyclon
##eria
bacon
petti
##yama
##old
hampton
diagnosi
rita
##₃
pablo
##sch
traffick
##ulus
plagu
##oh
vault
##bourne
webster
##ox
##ient
##ann
vacuum
sandwich
##gated
bolivia
clergi
isabel
##nas
##ars
reunit
annoy
bra
##ancy
##rate
differenti
transmitt
tattoo
poker
##och
cowboy
##tum
augustu
trash
statut
balconi
void
storey
leap
falcon
battlefield
pad
ronni
thread
lesbian
##dian
beg
sandston
daylight
gwen
analog
wwe
dec
toxic
##kel
adequ
surgic
economist
paramet
varsiti
##sberg
quantiti
ella
##chy
##rton
countess
expressway
##ı
uruguay
scan
outlet
ryder
lucien
##ila
paramount
##bon
syracus
dim
fang
gown
sweep
##sie
toyota
##nsis
val
trademark
##plane
patienc
starter
slim
##borg
elliot
nobil
##wyn
endors
gardner
tendenc
persuad
emiss
kazakhstan
##hand
llc
constantinopl
systemat
guatemala
borrow
erin
carey
##hard
##ifying
##ced
wong
enlarg
kindergarten
castro
##ern
##rina
leigh
zombi
juvenil
##most
consul
##nar
hyde
clarenc
nasti
useless
jung
clayton
stuf
ix
apostol
transact
##dge
exempt
cove
##ash
dairi
bypass
bug
joyc
bombay
chassi
southampton
chat
redesign
##pen
nascar
pray
salmon
rigid
regain
malaysian
grim
toilet
tray
striker
weaken
trinidad
mitch
itv
transmit
ming
scarlet
fitzgerald
fu
narrowli
sp
tooth
virtu
##₁
##wara
##cting
chateau
glove
lid
##nel
conservatori
##pel
sinclair
reopen
sympathi
nigerian
strode
chronic
discharg
##rc
compat
laurel
stella
wage
dodg
levi
buddha
##aka
heavier
summon
gateway
eleventh
jewelri
accordingli
##ency
fiber
pyramid
cubic
##ista
##ops
android
lunar
##dt
kai
lisbon
sacramento
theft
madagascar
subtrop
ta
piper
willow
mare
cane
itun
newfoundland
benni
dong
raj
roar
plaqu
tibetan
enact
bubbl
tina
tanzania
##eda
##hir
funk
swamp
cloak
ufc
scenario
par
scratch
anthem
guru
##boat
nineteen
cecil
duet
messeng
unoffici
##lies
defunct
moonlight
drainag
surnam
puzzl
honda
mammal
knox
sidewalk
cope
##ried
benson
peterson
##sal
bedford
eli
wreck
alberto
lgbt
compromis
davidson
eighti
jun
fernandez
enthusiasm
sponsorship
estonian
##fy
##nal
verb
##zzo
lightweight
mvp
dude
##vas
explicitli
metric
magnific
mound
brett
mohammad
irregular
##hing
##ass
sander
betray
surg
##enburg
piti
verbal
abbrevi
##are
##atic
sicili
sting
sweetheart
bart
spacecraft
brutal
monarchi
##tter
aberdeen
cameo
dian
##ub
clyde
##aries
##makers
clarinet
delici
chilean
karnataka
panti
##rst
ar
kiev
bella
catalog
telecommun
portabl
lindsay
vatican
##eim
marker
stint
bolton
##rne
judi
wool
benedict
plasma
europa
spark
filmmak
swiftli
##een
contributor
##nor
opt
apolog
butter
gideon
sophist
align
averi
yearli
specul
##ils
immort
incept
##wo
papal
linguist
vinc
breweri
##ont
unemploy
boyd
##ured
##outs
albeit
prophet
bi
##rr
##face
##rad
quarterli
asteroid
radiu
temper
##llen
telugu
viscount
menu
##ote
glimps
##aya
yacht
hawaiian
baden
##rl
laptop
readili
##gu
monetari
offshor
scot
##yang
##arian
needl
xbox
lea
encyclopedia
flank
fingertip
##pus
delight
roth
midway
##iah
teas
daytim
beverli
gambl
bonni
##backs
clement
hermann
##shing
##uring
##vre
ecolog
specialti
byron
inventor
unesco
midland
trim
##ander
##rry
thoroughli
feedback
##uma
chennai
heartbeat
overtim
plead
##sworth
mon
leisur
oclc
##tate
##ele
feather
angelo
nut
clever
gill
##dos
darren
gibraltar
##nc
##mu
dissolut
shin
saddl
elvi
taller
niec
advocaci
robbi
suffolk
yugoslav
passport
constabl
congressman
hast
vera
##rov
consecr
ecclesiast
confin
##ovich
muller
floyd
nora
pave
cumberland
ned
saga
spiral
##flow
yi
feminin
##ib
jade
##nse
##hot
champagn
mice
helsinki
##gos
ach
lucia
gandhi
submiss
vicar
spear
tasmania
detent
tighter
##gus
terrestri
##oka
parodi
philharmon
##onic
encod
consortium
collis
supervisor
broader
insight
emeritu
##50
##ein
handbal
flexibl
##nta
thief
##own
carr
prose
ucla
romeo
mk
zach
default
##ther
lengthi
spa
spectat
rogu
teresa
sen
##tric
dalton
##wich
irv
##vey
dell
deaf
exclud
unsur
##vable
patterson
crawl
##zio
latvia
slower
ecol
maharashtra
va
textil
pageant
##gel
alphabet
binari
irrig
choke
antoin
supplement
##wen
demolit
urdu
alt
##mc
scari
##ava
mw
aesthet
cub
bryant
##itt
awesom
prosecutor
ambiti
captiv
lorenzo
aisl
beef
foul
##onia
disturb
illus
##ffer
emi
riversid
wartim
adolf
melt
##ail
uncertainti
simul
meantim
builder
spray
breach
unhappi
regina
##urg
##tation
tram
##quin
##12
garion
mister
diaz
clip
nervous
disco
shiva
notori
disbelief
shini
worcest
##gation
##yr
undertook
belaru
watersh
fuller
overlook
raphael
synthet
breakdown
klein
##nate
moan
memoir
lamb
##erly
cellular
exot
##graphy
rey
hut
hierarchi
subdivis
freshwat
giusepp
aloud
qatar
marti
sideway
utterli
jude
mccarthi
softbal
blend
damien
##gging
##metric
wholli
erupt
lebanes
negro
maori
sovereignti
parkway
trauma
gran
malay
buzz
salvat
inventori
##making
antarctica
##gas
##bro
moham
myanmar
holt
##lman
locker
patriarch
bangkok
emerson
predat
kin
afghan
confess
norwich
rental
##zel
rca
##hold
shorten
aidan
##matic
autonomi
complianc
##quet
dudley
atp
##osis
motto
summari
spectacular
christina
archdioces
remak
##dell
psychic
reef
rs
meg
gu
##ude
bergen
toma
##iko
doom
##nch
##bes
scholarli
alison
outlin
brittani
breakthrough
realist
##cut
##boro
##stan
pike
picnic
icon
villain
micro
auburn
##hat
logist
vowel
barrett
exclaim
eurovis
ramon
##umi
##lls
modif
disgust
##uck
torch
aviv
rude
dusti
sonic
donovan
outskirt
cu
pathway
##band
##gun
##lines
cadet
##40
##sive
##⁺
slovak
impli
##beck
1880
leopold
instinct
attain
weston
megan
horac
##ination
dorsal
ingredi
evolutionari
##its
deiti
lethal
posthum
telescop
coron
motiv
luc
flick
volcano
tanner
weigh
##nica
franki
granddaught
##rna
constantin
gomez
##front
rudolf
anthropolog
slate
werewolf
##lio
astronomi
circa
roug
sack
knelt
drown
naomi
prolif
freez
herb
##dium
agoni
randal
wendi
wheeler
##bbled
##bor
daemon
nigel
##grave
merri
czechoslovakia
sandra
ng
roma
##sts
lambert
sheikh
winchest
##yle
comeback
cuisin
nave
##iv
ko
tomato
barker
iren
lantern
tract
swore
##gic
omaha
brotherhood
##rley
haiti
##ots
exet
##ete
##zia
dumb
pearson
elisabeth
##ef
fritz
##rf
premium
fraction
calmli
vike
##birds
insert
##ield
confront
distress
brent
turk
##olo
cambodia
gabe
sauc
##kal
evelyn
extant
quarri
luna
##lers
##ister
drill
##ashi
panther
scenic
libya
anita
strengthen
##cated
lace
judith
##uted
mint
##eta
midst
##vich
mock
cf
displac
schmidt
analyst
##lum
ag
automot
axe
josef
newark
resembl
50th
##pal
flush
mum
trait
##ante
commodor
incomplet
titular
eighteenth
cao
lima
medalist
##city
miniatur
zagreb
barton
umbrella
autom
georgetown
dresden
wyatt
rna
carlton
abund
stereo
boost
madra
##hia
spur
ip
malayalam
osaka
dose
vista
##aj
bud
papa
##cent
necklac
fri
montenegro
saxoni
goos
stuttgart
curat
groceri
sympathet
##tting
##fort
lotu
randolph
##rand
jupit
macedonian
##heads
hike
fischer
##itive
garbag
node
##pies
prone
singular
papua
inclin
italia
grandma
garner
jacksonvil
ego
aluminum
##hausen
##foot
drawer
trader
synagogu
##play
##kawa
wander
fragil
fiona
var
hardcor
soak
jubile
exposit
mercer
poster
valencia
hale
kuwait
##ises
##wr
##eed
tavern
gamma
johan
##uer
airway
amino
gil
##ury
vocat
torr
##sp
folklor
##keeper
canberra
shooter
fl
##lling
##gram
feb
forestri
pipelin
jax
motorway
decay
##tos
coffin
##cott
stalin
##nam
sitcom
twilight
veronica
passiv
straw
cultiv
##iate
christi
clari
bulletin
crept
dispos
##rich
##zong
processor
crescent
##rol
bmw
emphas
whale
aurora
##eng
dwell
haul
toledo
mega
ideolog
tessa
cerambycida
turtl
cone
kara
rusti
mozart
##tro
shire
spit
necess
##cos
inmat
nielsen
uncommon
omar
peasant
botan
offspr
sigma
##sus
wheelchair
liquor
pratt
##uta
forew
balloon
##zz
explicit
shawn
foolish
nm
hassan
vanessa
knive
cnn
##lice
eclips
eliza
mathematician
##roy
##ania
sheridan
meadow
##rius
##cial
downstream
clash
gram
baha
seymour
archi
edith
fare
flynn
tile
stab
boulder
camden
facial
mollusk
unreleas
yoga
ramp
shiver
##rose
qing
warwick
melani
gile
##rous
##inal
annex
nov
30th
unnam
##ished
organiz
airplan
normandi
stoke
whistl
shotgun
##ctic
reactor
##vik
fortifi
mascot
nc
columnist
tibet
##rta
lineag
oct
codi
##gger
hansen
kashmir
##eva
##tree
anatomi
transpar
##iga
inject
mattress
##mbo
helpless
##elli
weber
phenomena
plug
##iff
apprentic
howe
aaa
swimmer
barber
promptli
sodium
def
nowaday
aris
##oning
gloucest
digniti
norm
eri
##ders
evacu
sylvia
compress
##yar
hartford
pose
backpack
24th
millimetr
marcel
##oda
dodger
albion
aerospac
showcas
nolan
farewel
swollen
marqui
wimbledon
rue
commemor
inevit
calcutta
intel
##court
fisheri
imageri
bloom
brake
##inus
gustav
memor
po
viral
bean
tunisia
antenna
spill
consort
aye
perimet
##gard
hostag
banker
addict
apex
lil
trout
##ously
conscienc
##nova
genom
##lets
##set
amid
##ibility
##ret
higgin
exceed
##vie
payn
##zan
muscular
##ste
##wal
ibrahim
fuselag
claudia
vfl
interv
##garh
preparatori
statewid
lacross
viktor
##lation
angola
##hra
flint
implic
stall
scrambl
nucleu
tehran
jenna
parson
lifelong
##bles
precipit
##gt
knuckl
clutch
marx
kolkata
mat
bermuda
skeleton
vintag
orchestr
mistaken
##tc
dip
candl
##nick
wildli
fond
basilica
owl
fring
stir
feud
tertiari
slick
goat
wherebi
skip
ricardo
stripe
parachut
adjoin
submerg
synthes
##gren
nineti
phi
beaver
partit
alexi
carlisl
bizarr
fratern
##bre
ici
cbc
aquat
sneak
sonni
crude
spatial
alfonso
##bic
undergo
##ams
colombian
dolphin
perkin
##lish
reprint
unanim
bounc
underworld
midwest
semest
bucket
paperback
miniseri
coventri
demis
##leigh
sensor
yan
##hler
##idge
hyderabad
##dr
grandchildren
##nde
ferrari
augusta
stevenson
counterpart
gore
##rda
nurseri
rican
ave
broadli
repertoir
assert
nordic
fiba
cunningham
harley
middlesex
tumor
tempo
zack
lok
urgent
##rade
##nto
##ement
contractor
turin
##wl
##ool
bliss
simmon
astronom
cr
1890
lara
bred
clad
angu
pb
##ience
##lk
hernandez
psychiatr
confluenc
campus
lava
alp
##ep
##ution
##date
physicist
woodi
##page
##ographic
##itis
juliet
sparhawk
complement
suppress
jewel
##½
##kas
sadli
##ische
inabl
paula
flour
judaism
safer
vagu
##lm
curb
##stown
gabl
expir
miser
cassidi
dominion
robberi
facto
amo
warden
tallest
marvin
ing
usd
gasolin
##aux
darken
sophomor
##mere
gossip
risen
dial
##eu
pillar
##link
profound
##tina
arabian
ashton
silicon
##ead
##lated
##wer
##hardt
fleme
firearm
waterloo
titan
##lina
fireplac
cheshir
##zzi
catcher
cheroke
platoon
tragic
vivian
whiskey
medit
poetic
##late
##nga
##ake
porto
kendra
mona
chandler
22nd
salisburi
##ido
##haus
intak
javier
bia
cockpit
burnett
ensu
##anda
someday
hawkin
##lal
slavic
jesuit
cameroon
tai
wax
outright
hancock
librarian
bald
calcium
myer
tablet
barack
shipyard
pharmaceut
##uan
greenwich
medley
wolfgang
pt
nikolai
##gg
hayden
kannada
##type
reilli
##pt
waitress
abdomen
devast
pseudonym
pharmaci
fulfil
paraguay
##trom
archipelago
syndic
##hman
lumber
orgasm
clifford
lorrain
advent
mafia
rodney
brock
##ght
##used
##elia
cassett
chamberlain
despair
mongolia
development
upstream
##eg
##alis
trombon
basqu
rhi
leapt
##ages
chord
viciou
nord
23rd
arlington
corpu
sunris
blackburn
centimetr
##uded
shudder
gm
##ppa
##lton
bust
baghdad
batsman
mara
og
##cock
nathaniel
brennan
caucu
##worthy
yemen
ku
lazi
catalan
encompass
sawyer
##fall
sergio
dover
toler
penguin
cum
jockey
insuffici
plural
puppet
flander
liabil
##yon
gymnast
antwerp
taipei
hobart
jeep
chaplain
bundl
gloriou
##hine
hazel
flung
sol
excav
dump
sh
bangalor
triangular
turbin
##vers
##igo
jasmin
ditch
rite
##ways
compli
sorrow
basel
emir
marian
rivera
##some
caution
downward
##atory
##tered
dart
genocid
spokesman
conveni
unlock
augustin
elijah
andhra
##uda
##rrell
wan
##ame
##bby
lydia
weaver
##fest
##ast
nat
##ented
pam
conceal
inferior
abdullah
vengeanc
##ided
moistur
peculiar
groov
zip
bologna
jen
ninja
oversaw
batch
livingston
emerald
peel
nitrogen
rama
##fying
##star
werner
##ost
lime
casa
##rod
underway
##uru
hemispher
lester
##yard
2d
griffith
angrili
reorgan
##owing
courtney
##dd
##30
estadio
##ifies
dunn
##ying
##combe
##о
##fly
unexpectedli
blu
##flower
##ه
kn
##tail
mu
prosper
audrey
division
bronco
tangl
eros
paolo
surf
directori
snatch
humid
admiralti
gt
reddish
##nese
trench
leah
##nz
##form
transcript
##uc
pga
cyclist
inflat
rag
unnecessari
##hian
stubborn
harriet
baba
disqualifi
##fies
duel
wink
##raj
hiatu
pend
brightli
jealousi
##xton
##hm
##uki
lena
gdp
##dley
stein
kidney
##shu
underwear
##haw
##icus
m³
##wise
gp
uranium
disguis
bundesliga
elis
dunde
erot
partisan
pi
bucharest
ser
hare
valeri
nutrit
##isa
immens
##kis
pavement
##zie
##eld
sutherland
crouch
##lp
suzuki
endur
crosbi
priori
rori
##urn
gujarat
##pu
walton
cube
pasha
privileg
lennon
thorn
waterfal
nippl
##lov
dwight
ballroom
drip
rejoin
##uth
pagan
slump
##cle
##kins
bert
##aid
aston
sweater
starr
yuri
williamson
commut
mortar
selfish
##jon
##him
unfinish
##rre
mortgag
##nagar
cano
solitari
buchanan
magistr
fk
##pling
##lier
##vier
##mouth
malik
antiqu
piu
rahman
reich
tub
zhou
smash
galway
xii
hondura
dexter
##pf
lionel
lemon
tiffani
dom
dioxid
devi
sic
tremend
verdict
hanov
decommiss
utter
pac
racism
##top
beacon
limp
terra
occurr
ant
##how
becki
capt
armament
richi
pal
##graph
halloween
mayo
##ssen
##bone
cara
serena
fcc
oblig
##dling
lafayett
jakarta
exploit
##ime
infam
##lah
##park
kitti
moodi
reginald
dread
olivi
bluff
equilibrium
ordnanc
onset
cosmic
sammi
privi
##bil
abbott
bariton
emmanuel
policeman
vaughan
climax
polytechn
burmes
authent
nikki
grandpar
homestead
gaza
postpon
metacrit
una
##sby
##bat
unstabl
dissert
##rial
##cian
obscur
uncov
bronx
##hoe
prehistor
coke
turret
mutat
nonprofit
monaco
##ي
##usion
dispatch
podium
##mir
uci
##uation
fortif
birthplac
kendal
##lby
##oll
preacher
rack
goodman
##rman
persist
##ott
countless
jaim
lexington
persecut
##11
##holder
##lake
wrath
laundri
£1
gard
##rp
jeann
##sl
sergei
##rer
##ema
##ively
##vor
inscrib
verlag
scrap
gale
chick
potato
slogan
kathleen
##culture
reminisc
choral
##tead
rand
dane
courtesi
##oth
slaughter
hagu
krakow
lawson
elia
ginger
##ttes
canopi
rebuild
turf
##hof
allegi
alia
td
rowan
audit
bowi
harp
dillon
horrifi
##oro
renault
##tics
##α
infrar
acceler
##rid
practition
badminton
##iard
detain
##tera
miseri
##sies
##tly
reproduct
thornton
esther
hbo
##aan
bullshit
erni
perenni
illumin
rupert
##jin
##iss
##ear
rfc
nassau
##dock
stagger
##haven
nonsens
prestig
sharma
##tical
solidar
##ook
##rata
igor
pedestrian
##uit
baxter
tenant
unlimit
diabet
##rama
sasha
clive
extract
constraint
##bilities
sonata
sixteenth
chu
mayer
spat
##hua
ceram
##cci
##dad
latvian
sore
dayton
##sted
##qi
slice
playground
##nted
shone
stool
apparatu
inadequ
treason
##ija
##liga
##croft
somalia
laurent
mir
leonardo
oracl
grape
chevrolet
thirteenth
enthusiast
##ede
basil
##kovic
drought
##rica
mai
##aire
##shed
pilgrimag
pencil
marilyn
newest
clung
bon
sanction
##pie
mug
##stock
##mma
hydraul
##vil
lilli
##ncies
sour
##eous
compulsori
packet
##rion
##graphic
##elle
cann
##inate
##rit
heroic
importantli
theresa
##tled
conway
saturn
rae
##xia
royc
pact
jasper
aluminium
##ttered
denot
rhythmic
hereditari
lad
reissu
beatric
##dic
handbook
judiciari
avant
masculin
blur
##eum
##force
homag
hymn
trey
omega
sock
accumul
attic
theo
angi
primera
talbot
##key
ti
##hey
deacon
eduardo
proposit
dizzi
gunner
hogan
##yam
##pping
##hol
ja
##chan
jensen
##berger
clearanc
dariu
##nier
abe
harlem
plea
dei
notat
fascist
nevil
viabl
##fo
workforc
racer
shri
##lson
kerr
laden
##cture
gal
flavor
1870
##baum
##ures
motel
textur
soda
##mb
herd
##nium
hum
peggi
gould
testifi
geoff
ren
devis
##law
denial
grunt
cesar
tutor
ec
gerri
byrn
ct
pardon
26th
aveng
flare
mankind
seller
uttar
loch
nadia
##hd
fertil
ancestr
##has
propheci
taxat
emin
vivid
pol
##bol
indirect
multimedia
notebook
upsid
adrenalin
referenc
geometr
##iving
##ddy
blunt
##far
##lav
liaison
cooler
headach
gorg
impuls
asham
kathi
precursor
fowler
symmetri
thee
##rai
butcher
bowler
##lip
subscript
##ically
##hos
##tech
kyoto
donor
##erty
friction
harden
prostitut
fauna
snarl
hai
xiii
boon
psychologist
restless
lahor
mba
brendan
printer
##pc
27th
deed
##pole
cardiac
okinawa
proto
commando
compel
oddli
##base
replica
thanksgiv
##rist
sheila
stafford
tidal
hercul
ou
##path
##iated
lens
##tling
deficit
samoa
maze
smirk
razor
fixtur
aiden
##vs
julio
pitt
ramsey
##oss
##owed
bavarian
drape
anterior
ethiopian
##nton
discard
hoffman
endow
cartridg
mormon
patern
probe
lump
deadlin
##rail
jenk
bulldog
justifi
nam
secretariat
kirbi
sedan
##18
lola
cheer
##eter
unrel
##fan
subordin
##sdale
suzann
##ility
horsepow
##lda
cautious
discours
luigi
##mans
##fields
noun
preval
mao
schneider
everett
kira
##avia
westward
##take
misti
unus
##rating
toast
unwil
suffrag
nile
awe
assam
##rb
undef
benefici
torso
basal
##pass
bahrain
##itated
statutori
##rey
delux
##lian
ramirez
derbyshir
zeu
banana
lotteri
berg
bamboo
##uchi
resurrect
posterior
##thi
thou
offenc
##inas
meyrick
callum
ridden
langdon
lowland
snort
truman
##hale
##girl
aura
overli
goa
philanthropist
saunder
eponym
##owski
latitud
radial
##kha
flashlight
koch
ada
elain
supper
##rth
##encies
cola
##boards
##nah
compart
crook
arbitrari
fourteenth
##ctive
havana
steeler
ambush
packer
##tile
nude
fungi
##е
trouser
josi
shelbi
freder
##ος
smoothli
constel
insult
baton
linger
##nco
lent
becker
grandpa
shaki
##tron
einstein
obstacl
sk
advers
ell
##moto
mccartney
thor
nostril
treatis
##pace
prolong
venezuelan
je
marguerit
beirut
takeov
sharehold
##vent
denis
airplay
nors
##bbling
imaginari
pill
hubert
blaze
##ello
vine
mansfield
##tty
retrospect
barrow
bail
forens
weav
##nett
##witz
desktop
citadel
dorset
ieee
subdivid
##iating
expeditionari
pickup
synod
barney
##rz
##ffin
karachi
litig
uc
turbo
ander
##ffed
typhoon
##د
##ache
##asia
compass
graze
##iting
monopoli
muddi
namibia
francesca
stunt
tuition
##ии
##mates
##quent
mgm
##ond
cellar
seventeenth
flemish
mast
##cular
peruvian
macmillan
ipswich
outward
frigat
postgradu
##ouse
concurr
fieri
##tai
conting
nicaragua
##kowski
lizard
mal
gig
##pad
##ipe
coastlin
##cin
##nos
beethoven
humphrey
##tam
##nge
norri
dori
solicitor
huang
obey
##lc
niagara
##tton
shelv
aug
bourbon
curri
nightclub
hilton
##ndo
centenni
dispers
worm
neglect
brigg
sm
font
kuala
uneasi
plc
##nstein
##bound
##aking
##burgh
await
pronunci
##bbed
##quest
eh
optim
zhu
brenda
##life
venetian
marxist
turnout
##lius
refin
brace
sunderland
nickel
lowel
cyril
fundrais
colonist
mutant
freddi
usc
##mos
gratitud
##run
mural
##lous
chemist
wi
28th
tess
pietro
##ingen
ri
microphon
rai
sant
##qui
##nson
burlington
kurdish
deborah
##wed
##eet
hazard
irrit
veil
clariti
##rik
xv
##gged
##ows
##cup
berkshir
unfair
orchid
winc
obe
infin
##nies
redevelop
registri
olga
domingo
noir
tudor
ole
##atus
##ais
crisp
paulin
stirl
wigan
##bian
paralymp
surpass
##rew
poni
##sters
cassandra
waiter
carolyn
##orted
jonah
vacanc
suv
##glass
orchard
yep
famin
belarusian
sprang
##forth
skinni
##mis
rotterdam
zambia
zhao
boiler
##ride
##physics
luciu
outreach
spoon
##frame
regenc
##iidae
stade
realism
veterinari
rodger
alain
chestnut
castil
censorship
rumbl
gibb
##itor
communion
regga
inactiv
##houses
homosexu
##iano
ale
##cas
plaster
lineback
ambros
kaiser
fascin
limerick
forg
##nding
leinster
##strom
borneo
##hes
propel
patronag
neuron
comet
entireti
unchang
wari
##antly
##ogy
neat
oversight
##kos
philli
replay
constanc
##kka
incarn
humbl
minu
##acy
smithsonian
##chel
guerrilla
jar
##plate
surplu
##aru
joanna
louisa
##lights
##iri
diner
nwa
imprint
tong
unpreced
bunker
naiv
ark
nichol
leak
pedal
##uka
shrub
v8
neural
##ntal
##jet
medina
frantic
codex
sid
abolit
intensifi
enriqu
genoa
oxid
##written
cha
##gers
venom
##rity
##ente
##sca
muffl
vain
sire
lao
##ingly
##hana
hastili
sentiment
##oft
mesa
luckili
dinosaur
bourn
tow
offend
##ues
cynthia
##mmer
bartend
zinc
loi
##sai
arrog
rafe
rosi
handicap
blockad
inlet
lagoon
shelley
petal
##inian
mandarin
obsolet
##inated
arguabl
cindi
seldom
busch
raleigh
shortag
stanton
firstli
conced
tempor
##uke
cbe
##bos
woo
certainti
##pton
stalk
##uli
lizzi
thiev
weaker
##night
gase
wc
##chemical
##kill
robust
sticki
hu
tuberculosi
##eb
##eal
christchurch
wallet
rees
inappropri
fiddl
giggl
burger
hairi
torqu
apach
obsess
chiefli
cheng
##tag
meaning
numb
##vsky
gloucestershir
##bay
##lit
diminish
clown
1860
##ن
##ug
archibald
focal
freelanc
##yk
stray
##ril
lever
leningrad
anytim
reel
alicia
##ech
inhal
xiv
suitcas
berni
northampton
racecours
##right
##sfield
##rky
dimitri
pork
stephan
warship
peripher
drunken
wrinkl
quentin
chung
spokesperson
##zone
johannesburg
calib
##udge
neatli
demograph
abigail
bloc
##vel
##lain
bentley
slightest
xu
##jk
merlin
##writer
hindw
flicker
kappa
##hel
brew
gypsi
mali
lash
hulk
unpleas
harass
bio
pulp
troup
boil
mantl
##ffe
##vn
##onal
coconut
seneg
thorough
gum
momentarili
##sto
cocain
panick
##turing
teatro
weari
##hawks
##code
wakefield
bollywood
##16
##wu
##bahn
stud
##ovo
tex
mosaic
paddi
##hic
##15
##mura
##verse
popularli
winger
kang
sentinel
mccoy
##anza
coven
##bag
verg
firework
thrill
##jar
swansea
##60
reconcili
##ndi
stiffen
cue
dorian
##uf
damascu
amor
ida
foremost
##aga
porsch
unseen
dir
##had
##azi
stoni
lexi
##nko
angular
integ
podcast
inher
persona
##olved
josephin
##nr
##ressed
customari
gala
cyru
backyard
ariel
physiolog
greenland
html
avon
atletico
finch
methodolog
ked
##lent
catholic
townsend
quinci
ashor
aragon
##19
forearm
##sd
grind
amnesti
keller
lankan
##uto
guam
bosnian
workplac
protector
##dog
##sten
bodyguard
electro
brighter
##ν
bihar
##chev
amphibi
sal
verd
##cope
vocabulari
##tted
desmond
##chus
strap
##ович
emblem
##dre
##ulous
marijuana
northumberland
##gn
##nath
bowen
beaumont
##qua
danub
##bler
th
ge
flyer
critiqu
cass
acc
##0s
colombo
mckay
motif
##rell
neon
ds
clint
mourn
wilkinson
##tated
merril
leopard
exhal
emil
sonia
ezra
discret
stove
farrel
fifteenth
prescrib
superhero
##rier
helm
wren
##duction
##hc
expo
##rator
hq
unfamiliar
antoni
cheaper
ign
clifton
irvin
davenport
mozambiqu
##np
##evich
##wig
##cate
##iling
crusad
ware
##uel
ml
##coe
mater
ambit
bunni
eliot
kernel
##fin
asphalt
headmast
torah
aden
lush
waiv
##care
##yas
joao
substrat
##grad
##ules
alvarez
epidem
tempt
##bit
bremen
waterfront
29th
forrest
manni
malon
kramer
cooki
simpler
absorpt
engrav
##ffy
haze
crossov
##abe
##rift
##imo
##pop
fatigu
cutter
##tr
wurttemberg
##orf
hover
proprietari
gb
samurai
syllabl
ascent
lacey
tick
lar
tractor
merchandis
rep
##yre
huntington
##ground
##oko
##hor
##hima
nu
raini
liar
##uga
secondli
flatten
io
undercov
##mity
bordeaux
exodu
inact
debbi
nyc
pledg
savoy
nagar
offset
organist
##tium
hess
##iver
diagram
propuls
pu
revert
##dc
proclam
##inae
##ø
##rea
ein
sf
birch
strauss
##dh
brandenburg
concess
rd
##ob
1900
textbook
cinematographi
wharf
setup
creed
farmland
inequ
fallon
##ingham
##uts
ceylon
lauri
##tern
##uated
##dent
allah
##cross
icc
respiratori
##dicate
chandra
sein
diagnost
dev
goddamn
analys
dhaka
cho
chancel
curious
1850
jaguar
sinist
spinal
traction
declan
vow
swirl
universidad
##lder
##oat
soloist
##genic
##oor
coincid
nissan
caucasu
combust
infecti
##eno
pigeon
serpent
##itating
salad
##gr
surreal
##wc
harmonica
##gins
##etic
##coat
fishermen
braveri
##wave
klau
wembley
taiwanes
ransom
40th
incorrect
hussein
eyelid
jp
##etta
##print
eisenhow
granada
lana
##rak
concord
##bl
bethani
conni
sega
##mons
##nard
##kara
##cine
wii
##rel
coma
soften
##17
nguyen
analyz
warlord
hubbard
heavenli
behav
slovenian
##hit
##ony
hail
tranc
caldwel
skye
unrest
coward
likelihood
##aging
bern
sci
taliban
honolulu
##wang
browser
cobra
conan
violinist
##ores
accessori
##amp
sioux
##dating
undertak
intercept
sparkl
fungu
haley
degrad
lincolnshir
wetland
tulsa
distributor
dungeon
nun
greenhous
convey
atlanti
aft
oman
dresser
##sti
judgement
omit
##cts
##game
##rae
stricken
une
##ngo
weir
breton
nan
technician
royalti
##cca
persia
magician
##rable
##unt
vanc
cafeteria
booker
camil
warmer
##static
cavern
foyer
sooth
graveyard
maj
plung
blush
##wear
cascad
ordin
##nov
boyl
##lana
rockefel
shaken
banjo
izzi
##ense
breathless
##32
##eman
chromosom
feudal
mole
catalonia
relic
##fm
fridg
honesti
raul
heap
enlighten
wherein
chatham
zen
affin
hc
osborn
piston
##rana
lago
##zal
##nay
subset
biograph
##cre
arteri
##zers
insignia
##eration
schwartz
serb
berger
cromwel
crossroad
##ctor
clasp
##bine
marseil
twitch
abel
catalyst
moldova
##tist
disastr
wee
##oured
##nti
wwf
nope
##piration
##asa
##nza
coca
cheat
##ption
sensori
heidelberg
satan
bohemia
whitish
shipbuild
ravi
baku
suffix
alejandro
##yana
litr
upheld
##unk
rajasthan
##rek
coaster
postur
etienn
transgend
poke
greenwood
milit
somali
chalk
potent
##ucci
migrant
niger
##ario
colon
shaun
##sat
daphn
##erated
swam
repris
playabl
xvi
##р
overthrow
tobia
knob
chavez
##mers
prop
katrina
newcom
##suke
##pool
farmhous
interrog
##vd
##vert
forthcom
strawberri
joaquin
macau
siberia
##cellular
chant
##nant
##ologists
sped
##hore
barbado
karat
opu
saul
##xie
evergreen
##rock
correl
exagger
weekday
unif
bump
brig
afb
##ners
mod
mb
kneel
##stad
##guchi
100th
pune
##thy
manipul
miriam
academia
ecosystem
rbi
##lem
rift
##14
rotari
awaken
guerrero
racist
##omy
cyber
culmin
annal
panzer
wikipedia
zu
austro
##vate
algerian
nicholson
dartmouth
##gating
db
##jee
regan
choreographi
##media
alexandr
gregor
madelin
##idal
apocalyps
##hora
gunfir
elv
liang
lam
tar
##gna
##lining
shea
stronghold
##rgan
hasan
sgt
ling
##₄
supermarket
##ark
specialis
reson
hmm
perfum
sami
garland
botani
puppi
russo
supplier
wilmington
vibrant
vijay
##bius
grumbl
paig
faa
##gong
fest
grenad
##uz
##sian
wiltshir
edison
costli
##not
fulton
tramway
staffordshir
cach
watkin
sleepi
candidaci
##group
timelin
throb
##bid
##sos
berth
uzbekistan
vanderbilt
overturn
gem
##iger
sunglass
subscrib
hooker
ang
saloon
##rdi
carla
rom
##vision
coil
##oids
vendor
31st
mackay
ambient
bahama
felip
olympia
whirl
botanist
##dden
discipl
unionist
foley
mors
creepi
##₀
soo
##sz
bargain
turnpik
tori
##cer
##walk
unoppos
manifesto
##gles
kapoor
##dam
kilkenni
cortex
##13
romanesqu
jain
shan
##ood
##ske
petrol
amalgam
cautiou
trenton
##ر
flotilla
contempt
tor
canari
cote
##hun
conceptu
delet
paso
elf
hutchinson
##eiro
##outh
##zin
surveyor
tee
amidst
intro
##ono
cobb
newslett
hanson
confisc
dem
caravan
marino
scroll
melod
imam
##adi
##aneous
northward
biodivers
cora
##bers
connel
theologian
halo
pathet
unmarri
dynamo
##oot
az
toulous
humour
nr
tam
undergon
martyr
pamela
whore
counselor
hick
battleship
electromagnet
##bbs
stellar
presley
##chin
temptat
##yuan
nh
##nya
seminar
##yev
gong
asher
lex
sikh
tobago
goin
##yte
satir
##gies
characteris
lure
##vid
therapeut
wholesal
sac
##zzled
virgil
##yx
ghetto
vicent
##rington
fae
namesak
bounti
##arium
joachim
##ota
##iser
aforement
axl
snout
dismantl
reuben
##ibly
gallagh
##lau
##pd
earnest
##ieu
##iary
inflict
##llar
asa
grit
##athy
jericho
##sea
##was
undersid
undead
eastward
undoubtedli
chimney
##iche
guin
##ager
##bell
traitor
tipperari
choreograph
perch
stationari
eco
##ike
##ntes
bacteri
##aurus
flore
phosphat
##core
alvin
a1
indirectli
businessmen
corneliu
sober
ul
national
monast
sceneri
##jack
cpu
##osh
sd
woven
##uddin
gao
##erie
antagonist
impati
glacial
denomin
##jas
##tee
marquess
bahn
parol
buyer
bait
paperwork
bestow
natasha
vaccin
##tock
playhous
jai
oswald
##cky
mortim
##isi
sept
##gler
##sum
scrutini
squint
##shin
oven
shankar
##я
luggag
spectral
louie
##ailed
##ivating
hoover
blackpool
har
ignit
vest
belmont
mongol
skinner
##nae
mage
derri
##tism
##unce
stevi
##rdy
redskin
prep
##21
overse
##loaded
##books
##iki
fda
scowl
prasad
mystic
tucson
##vale
revu
springer
bankrupt
aristotl
salvator
habsburg
##geny
dal
natal
pod
chew
moroccan
walkov
rosario
lenin
punjabi
##ße
hui
polynomi
gina
##cratic
arid
erich
irwin
sniper
##dha
linen
lindsey
maneuv
butch
socio
postseason
jeremiah
bead
bp
abba
furnac
rubbl
enclosur
sob
weakli
polli
##emann
curli
batter
vh
jacquelin
grayson
riga
sloan
##yah
bravo
##athlon
alloy
immin
waltz
##itate
##ited
decept
prefix
##emia
deepest
##tier
##eis
balkan
##rong
slab
##pate
peterborough
dickinson
rwanda
##atics
dirk
lan
##rove
clone
##rice
caretak
mclean
##gre
tsar
tango
diplomaci
various
celesti
pulitz
##dus
bing
libretto
##moor
adel
splash
##rite
ld
##izer
spontan
wedg
##ope
bilingu
rug
conner
uae
eaton
##gra
##zzle
lockhe
vishnu
reelect
alonso
##oom
headlin
heinz
laureat
##sford
scandinavian
##dham
vitamin
salut
micah
hind
##sper
radioact
##ndra
ratifi
campeonato
depriv
##dong
outlook
##tani
##rix
##eye
chiang
darci
##oping
mandolin
spice
statesman
babylon
afro
##cap
giorgio
buffer
##polis
planetari
##gis
overlap
kinda
centenari
##bir
elm
ke
ak
##tad
chrysler
moos
pomeranian
quad
macarthur
shorelin
stratford
##rted
##evic
imp
##rita
##sque
accustom
vogu
khz
reno
luftwaff
mcmahon
tyne
masterpiec
collid
dune
muzzl
##mobile
heck
##rson
burgess
middleton
boycott
bilater
##sity
lumpur
multiplay
spotlight
goldman
lieg
porcelain
waterford
benz
kensington
bake
cheyenn
lattic
levin
polym
denounc
##25
##von
caviti
##oney
hobbi
akin
##holders
intric
cornish
patti
##oned
##lag
barlow
yellowish
maddi
luton
##puram
nana
##rds
sway
fanni
łodz
##rino
psi
##eding
charlton
##por
nak
analyt
wardrob
##rma
sect
fairfax
hedg
buckingham
uneven
bauer
simplic
snyder
byrd
##cite
##max
hr
jamaican
ping
##uss
mongolian
diver
eagerli
apartheid
revolv
sulfur
moran
##enko
ile
rhetor
##icated
chronolog
recycl
##hrer
elong
mughal
pascal
vibrat
##fare
##rant
matthia
digest
rehears
weiss
reev
cling
flourish
ngo
##hoff
##ume
buckley
symposium
weed
##taking
##gence
##yman
foil
priesthood
voluntarili
##80
##hya
slater
sv
mcgill
##lde
moreno
##iu
besieg
zur
##phic
api
deport
turmoil
peyton
##ares
beau
brethren
welch
galeri
##ested
impend
steward
viper
##vina
brandi
foam
nl
##cake
alessandro
##lim
clit
reggi
discomfort
##cards
##cene
adler
duffi
disciplinari
recip
relianc
gradient
preach
##shaw
matilda
quasi
meridian
cannabi
cordoba
##agh
##tering
graffiti
pilgrim
##ych
urin
etat
##hawk
fuzzi
suscept
##hang
mauritiu
sall
sincer
##cki
arbitr
entrust
snif
junk
donnel
celia
mendoza
everton
prejudic
starv
reassign
steamer
##lund
evenli
foreman
##ffen
envis
slit
##xy
baseman
liberia
rosemari
##weed
electrifi
potassium
stride
sperm
slade
influx
bianca
subcommitte
##rane
icao
estuari
##nock
iphon
##ulata
isa
mira
bohemian
dessert
##sbury
proudli
##chs
muse
ascens
russ
##vian
##psy
##morphic
gov
eccentr
crab
peck
##ull
formid
marketplac
groom
metabol
patton
robbin
courier
payload
##ifier
refriger
##pr
ornat
##uca
ruthless
illegitim
masonri
strasbourg
adob
##³
quintet
willingli
nich
bakeri
energet
##cliffe
##sser
##ards
centimet
centro
fuscou
cretac
rancho
##yde
andrei
telecom
tottenham
oasi
corey
cp
sim
##pis
malawi
##48
##cked
##ffle
##ryn
countdown
psychiatrist
psychedel
blous
##get
choi
##oz
randomli
##pol
49er
scrub
blanch
bruin
dusseldorf
##using
unwant
##ums
dominiqu
headlight
om
laguna
##oga
famous
shrewsburi
##aine
ajax
breun
che
confederaci
greco
overhaul
##screen
paz
disagr
cruelti
jag
phoeb
shifter
virus
##wes
mandi
##lined
##gc
landlord
squirrel
##ι
ornament
gag
walli
grang
undisclos
yin
##text
orphan
lucian
##tary
vaughn
##anga
##hell
psycho
daytona
rematch
sli
tandem
##oya
rebrand
impair
hee
metropoli
peach
godfrey
diaspora
gleam
dar
playback
##rden
##tain
##cating
rudi
alba
##onne
aquarium
##gb
##tase
sumatra
hardest
laker
conson
creep
homicid
capsul
zeke
expuls
pueblo
##comb
##ddin
##neck
##yna
gregg
mold
ledg
hangar
oldham
playboy
gmbh
romero
##itic
cradl
filthi
slash
shootout
depos
##truct
isi
microwav
tumbl
cathi
werewolv
messi
andersen
convex
clap
clinch
edo
vc
rufu
##jak
##etti
poznan
##keeping
restructur
transvers
##rland
azerbaijani
sloven
roommat
shear
##quist
vanguard
oblivi
##hiro
disagre
baptism
##lich
coliseum
##aceae
salvag
societ
cori
versail
ahl
swell
##elo
##word
##edes
gin
sarajevo
divert
##nac
thoroughbr
flutter
utrecht
acquaint
mirza
##wart
nike
salzburg
yen
##gee
idl
ligu
samson
##nds
##igh
spawn
##cise
##case
burgundi
##bot
skeptic
marathi
##dies
arous
pinch
##lik
buster
rust
##ital
kitten
addison
pseudo
##guard
dusk
sermon
##psis
##iba
bt
##lift
##xt
ju
truce
rink
##dah
##wy
defect
psychiatri
glucos
##iful
##rized
##unda
francais
##hari
richest
warwickshir
carli
puriti
redempt
lend
##cious
bruis
cerebr
aero
##name
prefac
terminolog
monti
##int
anarchist
##iled
rossi
shu
foothil
cecilia
drone
rudolph
buffi
horton
attest
##hop
rutherford
howel
primetim
liveri
penal
##bis
hydro
wrought
palazzo
##gling
vernacular
friedman
nobleman
shale
walnut
##ection
##tley
sear
##kumar
por
dracula
gallon
orphanag
##iman
mckenzi
##gible
dali
##balls
##ان
##ific
##rative
##iq
##uity
hillari
goldberg
provost
lim
jong
mohan
usaf
##tem
##ught
autobiograph
haut
##ending
acquit
hydroelectr
cypriot
chrome
instabl
fiat
##mbe
sila
dye
reckless
##itation
info
##writing
maltes
mushroom
staci
aspen
avid
##kur
##loading
vicker
gaston
hillsid
gail
kung
sabin
##rgo
pneumonia
fetch
##sonic
axel
faintli
##oop
mclaren
spous
compton
interdisciplinari
##eni
clamp
##chal
##llah
versa
##mler
scarborough
labrador
##lity
##osing
rutger
hurdl
como
burt
##100
wichita
cade
##erson
mla
##pper
vineyard
##ili
##brush
notch
jase
##acle
pomerania
##ady
ronan
seizur
pavel
problemat
##zaki
domenico
##ulin
cater
penelop
emilio
ministeri
atkinson
##bolic
clarkson
charger
colbi
grill
peek
##aged
##grapher
qaeda
##vial
refurbish
##hwa
geelong
nudg
bs
lori
alga
reinstat
rot
##ades
##nous
stainless
##itude
diocesan
til
##icz
##xa
benton
floral
##ider
##erman
##kell
absurd
brunei
guangzhou
hitter
retali
##uled
##eve
blanc
contamin
##eres
##rner
dire
palermo
brewer
ky
mixtap
hormon
##tok
##color
##dly
##ssi
pg
##ometer
##lington
sanit
##tility
intercontinent
##adt
¹⁄₂
unison
croix
gertrud
odyssey
vaniti
dangl
##logists
dice
middleweight
##ight
henrik
parlor
orion
lac
python
blurt
##rri
sensual
##phs
huski
peerag
precinct
cheltenham
shuffl
dai
bhutan
##riation
tyron
segreg
abrupt
ruiz
##rish
blackwel
confidenti
##put
vase
scarc
fabul
stapl
guyana
glider
shay
##tow
carmin
troll
interven
squash
superstar
##uce
cylindr
roadway
handi
##rium
##jana
meta
##rring
##tadt
##elin
##kova
willem
skater
qi
volkswagen
##ł
tad
hara
archaeologist
awkwardli
eeri
##kind
wiley
##heimer
##24
titu
cfl
lama
usb
vent
enrag
maximilian
##gaard
##oran
quaker
##ulo
avalanch
mono
silki
isaiah
mustang
potomac
cl
kilogram
plato
##olin
bernstein
##ype
holstein
ponytail
##watch
beliz
heroin
perpetu
##ylus
charcoal
piedmont
glee
backdrop
prologu
##jah
##mmy
pasadena
ramo
##holm
##tner
##tri
anand
defici
hertfordshir
stout
##avi
apertur
oriol
##irs
doncast
intrigu
oti
##mat
cocktail
##jit
##eto
amir
sar
##proof
##act
##ories
dixi
##bow
whereabout
##fted
bulli
scriptur
coher
fore
poe
appetit
##uration
##ators
##dp
derrick
rotor
peacock
##rro
##coming
rodeo
scotch
##mot
##db
##fen
##vant
rodrigo
dictatorship
##н
marta
rainforest
sai
##cles
symphon
mcbride
dislik
aubrey
##iation
##lion
##ssing
lublin
salesman
##ulates
spheric
whatsoev
avalon
punt
alderman
atari
##dina
##grant
##rop
scarf
sevil
fairfield
palatin
##rca
feral
##iom
elk
nap
olsen
reddi
yong
##leader
##iae
garment
feng
graci
outrag
viceroy
##esis
breakup
gradi
softer
grimac
galicia
##rsten
##sb
##cens
##eka
bitten
ara
fender
nausea
kri
banquet
comrad
detector
##llan
##shot
##uman
epa
kindli
talon
mausoleum
runaway
hangul
lookout
##cic
cough
chlorid
##ald
quicker
accordion
neolith
##qa
artemi
coeffici
lenni
pandora
tx
##xed
ecstasi
litter
segunda
chairperson
gemma
nasal
antioch
##eded
judo
morrow
peni
bandit
##any
##phones
langley
yorker
##uo
##kle
gubernatori
fatti
samsung
leroy
outlaw
##nine
unpublish
jakob
##ᵢ
##ₙ
crete
distort
##dhi
crust
mig
clau
stallion
frontal
armistic
##estinal
elton
aj
camel
malaria
woodward
calf
cigar
penetr
##oso
willard
##rno
##uche
converg
noteworthi
##lma
##rva
manfr
##sable
##vocation
fianc
##posed
provok
##cturing
modular
stockton
paterson
vlad
selena
maureen
##tres
uber
##rce
##num
nanni
pawn
naturalist
parma
apostl
awok
ethel
wen
##bey
monsoon
overview
##inating
mccain
rendit
riski
adorn
##ih
equestrian
germain
nj
conspicu
##yoshi
##imeter
mileston
rumour
flinch
smack
token
##bei
##shore
##iable
nero
##leaf
ismail
##lace
bridget
sud
stimulu
rein
##oud
##gned
giro
honeymoon
##swell
criterion
##sms
##uil
libyan
##osition
preview
metaphor
diffus
fay
cinematograph
liturg
bitterli
humboldt
##ckle
flux
rattl
##itzer
odor
authoris
##ов
archaic
invers
##leton
##pine
drummond
tsunami
##minate
##tland
booklet
calculu
##tore
##bt
stung
##eca
##nched
prevail
lila
##borne
julien
##won
therapist
erica
cw
libertarian
bowman
vita
##ional
##ads
##entation
caledonia
mutini
##sible
1840
##ß
flock
##pia
patholog
##imus
remarri
##22
joker
withstand
##att
shropshir
madelein
mateo
ol
mercenari
nico
##ndon
albuquerqu
augment
mythic
bel
freud
##child
##lica
lillian
nuremberg
calder
bonn
urgenc
vin
restraint
tyson
##cera
##selle
barrag
bethlehem
kahn
##par
nippon
baroni
happier
ryu
makeshift
sheldon
castillo
bethel
fluent
pornographi
rum
disclosur
mace
gunther
manli
##plex
rt
##tooth
##gny
compliment
recess
barg
connector
exquisit
prefect
##rlin
patio
##cured
brandt
ital
pena
wasp
satin
ea
botswana
##jima
##rter
##oic
franciscan
##dl
alfredo
##olate
##iously
sherwood
cod
promo
cheryl
sino
##ة
##escu
##zhi
brownish
thom
ortiz
##dron
##beat
carmel
##bana
anastasia
downhil
vertex
remembr
harmon
homework
##sol
fiance
angelica
loft
ramsay
quiz
collieri
##cape
autism
##hil
walkway
##boats
ruben
abnorm
ounc
khmer
##bbe
zachari
bedsid
morpholog
##olar
sparrow
##35
hewitt
queer
remast
mabel
solemn
notifi
lyricist
symmetr
##xide
encor
wildcat
##uni
baja
##pac
mildli
##ease
commod
glossi
##omo
damian
prelud
##vet
awhil
##aud
##iques
distinctli
remedi
##dded
windshield
dani
xiao
##endra
audibl
powerpl
invalid
##hala
immacul
libbi
plata
smuggl
ventil
minh
##morphism
dion
kelley
lore
sabbath
hygien
runoff
styliz
talli
aux
righteou
aba
siren
reaper
pearc
milli
##cier
##yra
gaiu
##iso
##ttering
dorm
claudio
##sic
##ored
discount
fumbl
##ς
novak
perpendicular
spoil
fractur
##urt
topolog
##cats
esteem
broadband
conven
frankli
hound
isil
keel
##sher
sahara
bubba
orb
hem
##xing
romney
slalom
stefano
ulrich
##active
folder
foliag
hitchcock
epithet
##aca
ballist
brodi
hinduism
chaotic
##pala
thicker
capitalist
improvis
sinatra
ascend
beverag
##tl
straightforward
##kon
curran
##west
boi
sax
unpopular
##kk
cartoonist
fuse
##mble
unto
##yuki
##cko
##ln
darlington
slain
sediment
##grass
defianc
dicken
manifest
alumnu
arbor
appalachian
mustafa
cabaret
traumat
yve
bracelet
magnum
odessa
mitsubishi
##gua
kellan
vaudevil
##fr
null
probat
##ław
cede
##pas
##zawa
viet
rothschild
museo
huddersfield
##vr
##storm
bracket
daze
incorrectli
##vu
reg
glaze
manifold
ironi
##sun
##rte
willing
mei
##aba
##lea
sy
harmless
##hammer
bray
takeoff
poppi
timor
cardboard
astronaut
purdu
weep
southbound
diagon
##neer
lamar
bryce
comt
harrington
##uba
##see
##cken
##henko
affirm
modernist
##lai
hodg
aristocrat
baptiz
justif
oiler
##now
qin
snack
healer
##qing
layla
formul
stephenson
gravit
##gill
##jun
granni
##cd
##ioned
##cote
##hips
sep
apr
barrist
fia
mina
policemen
paranoid
##pressed
churchyard
covert
crumpl
tr
barr
spire
##cology
##enia
##erry
vida
##nat
##islav
rig
##ink
slack
##70
mv
##wei
classmat
##odes
##rar
##rked
amherst
furnish
foundri
menac
mead
##lein
flu
wesleyan
##kled
monterey
webber
##vos
wil
##mith
##на
bartholomew
restrain
##cke
amen
mediat
sewag
mainz
##thus
1800
##cula
##inski
supersed
mariann
crypt
sweati
ensign
historia
##br
spruce
##post
##ask
yukon
pamphlet
ame
##uter
karma
##yya
bryn
incap
##mbre
##ntial
taft
##mill
luce
##amine
motionless
envoy
sculpt
provenc
kali
cullen
horseback
##while
goodwin
##jos
gaa
nort
##ldon
wavelength
abd
sprinter
forecast
##chman
boer
##isch
swap
fisherman
assyrian
guthri
murdoch
tanya
dolli
laci
med
##45
syn
millionair
##ust
##ml
##ision
heav
tammi
attende
saxophonist
backseat
malaya
##lord
tau
##ishly
##rks
##holes
##hong
ching
##wife
jurass
stacey
unix
zion
chunk
rigor
blain
peabodi
slayer
dismay
nz
##jer
det
##glia
glover
postwar
int
sylvest
imit
airlift
heiress
knoxvil
viva
##uin
macon
##rim
##fighter
##gonal
janic
##orescence
##wari
mariu
leicestershir
blanco
invert
preseason
saniti
##due
##elt
##dled
collingwood
regener
shortest
##mount
##osi
femin
##lat
sherlock
northbound
##mme
##akes
guillaum
vapor
sap
gangster
frey
f1
calli
barnett
audi
slung
panchayat
ambigu
bartlett
##etto
wolverhampton
##hetic
swami
histoir
##urus
liabl
pounder
groin
hussain
larsen
##atter
vie
curt
##station
mute
richter
##sef
tna
##press
deterior
yiddish
##acious
colchest
cs
pmid
ao
verifi
recogniz
oxfordshir
retent
nottinghamshir
contend
judd
shrimp
uhf
##icient
cleaner
longitudin
tanker
##mur
acronym
broker
koppen
sundanc
##gil
##anne
landslid
landown
auspic
melvil
quantit
##xes
nicki
##llus
doo
roch
carver
unavail
##pathy
hiroshima
##hue
garfield
vall
keyboardist
##eit
congest
##bate
deepen
vill
##lore
inflammatori
tonga
##itch
co₂
##hea
gigant
serum
verona
35th
ci
##phobic
magna
##vati
arithmet
##sport
##dation
amtrak
chow
sienna
##eyer
backstag
entrepreneurship
##otic
learnt
tao
##udy
worcestershir
baggag
bali
sabotag
##kari
barren
pl
freshli
putnam
syntax
resent
bandwidth
##sier
chili
guido
##sei
gareth
lissa
geneviev
pertain
geo
thorp
prolifer
sato
bela
##gor
##isman
huddl
secreci
##kling
hush
gentri
##ego
##utz
sacrif
##chule
adolesc
disrupt
seasid
gee
vamp
georgi
##nesian
##iol
sindh
##market
etch
spars
bey
beaux
glide
unidentifi
oro
mbe
anal
##xin
newscast
##egan
janata
dewey
parkinson
ankara
biennial
dd
inconsist
##chet
thrive
furious
donkey
marley
muster
phylli
leiden
##user
grassland
glitter
iucn
loneli
memorandum
##ddle
rhodesia
lame
##illon
bikini
header
##xx
##finger
##ulator
sharif
biotechnolog
stroll
naughti
yate
##wire
fremantl
milo
##mour
abduct
##atin
wonderland
##chrome
##ester
hume
pivot
##rates
armand
rte
apron
scrape
##yria
##llation
nearer
##tom
##ulu
coars
neutron
##uze
loir
1830
propon
guggenheim
ritchi
hutton
##raz
##ako
longitud
##lev
skelet
yer
emilia
citru
##gau
pokemon
prescript
paragraph
eduard
cadillac
attir
categor
kenyan
charley
##bourg
monmouth
##lles
nutrient
davey
mesh
incent
practis
kemp
subdu
overheard
##rya
bodili
maxim
##nius
apprenticeship
ursula
##fight
silesian
unconstitut
patel
coyot
unbeaten
##hak
34th
parcel
##cl
##nham
collier
mallori
##iac
##lab
susannah
winkler
##rber
shia
phelp
##sner
adulthood
mart
##isto
kathryn
clarifi
##aran
oppress
##mt
federico
mathia
eileen
##tana
kite
hunch
##acies
##atz
disadvantag
liza
kinet
greedi
paradox
yokohama
dowag
##gement
gupta
vilniu
olaf
##thest
crimean
hopper
##ej
arturo
arrondiss
##fusion
rubin
simulcast
oceania
##orum
##stra
##rred
busiest
cari
##vine
##hini
##bies
fife
rowland
insurg
conor
inward
garlic
##eering
eclect
##hui
##kee
##nl
furrow
varga
meteorolog
rendezv
##aus
culinari
##dition
quota
##notes
mommi
mule
##iology
##mology
wentworth
##isk
##zione
mainlin
subgroup
##illy
hack
plaintiff
verdi
bulb
multin
bertrand
caller
regi
##naire
##sler
##arts
##imated
blossom
propag
viaduct
##uate
beckett
golfer
semin
semit
thud
volatil
ridley
##wley
trivial
scandinavia
jiang
##ject
##dio
napkin
##ods
adjunct
rhyme
##ricted
##eti
hopeless
32nd
smoki
##ntly
wilk
hue
landon
yahoo
##lane
hendrix
dex
##ggio
interc
morley
##torm
##oting
pang
obliqu
##liner
flirt
newborn
bishopr
shave
##ush
dharma
spartan
##ooped
smug
novella
espana
##lage
paradigm
semiconductor
sheen
##rdo
##yen
##zak
nrl
##pose
##tur
adjut
norma
##enity
ineffect
weimar
##gat
lordship
expenditur
infring
refrain
av
mimi
mistakenli
postmast
##bara
motorsport
tito
##zza
stew
##kaya
prescott
1a
##raphic
##zam
paranorm
katz
akbar
indefinit
##ogical
applaus
##phine
pest
##fide
articul
berti
##thing
##cars
##ptic
courtroom
crowley
tehsil
##ibe
stadion
jaenel
ciudad
##chu
mysor
##sio
lucan
##aly
henley
##rano
##tious
homecom
beyonc
usher
henrietta
##oman
pluck
##pire
##dable
##aq
password
pastur
juno
minsk
##dder
##ologies
##rone
martian
royalist
##mani
##rge
nino
parri
scoop
##eli
##uting
##cao
noisi
travers
##agawa
strikeout
nickelodeon
obituari
transylvania
polk
trolley
##yed
##lard
breeder
##under
dryli
hokkaido
bonapart
anaheim
gutierrez
sinai
##zzling
bram
fresno
madhya
##86
proton
##lena
##llum
##phon
wanda
##anus
##lb
ampl
##yler
bland
stimul
##eux
scarlett
fern
pentagon
baird
chesapeak
ir
##olis
##astic
##gina
prom
dammit
ying
##chia
welterweight
33rd
pointer
umpir
multitud
paddl
##obe
intimaci
##insky
ssr
##lett
##lean
##lves
##therapy
airbu
##tery
ud
bearer
biomed
netflix
##hire
##nca
condom
brink
ik
##nical
maci
##bet
flap
gma
jelli
lavend
##icles
##ulia
munro
##mian
##tial
rye
##rle
60th
hottest
fuji
##erence
##omi
barangay
##fulness
##sas
##rwood
##liness
cereal
roe
wight
decker
babu
onion
xml
forcibl
##df
petra
sarcasm
hartley
storytel
##42
##xley
##ysis
##ffa
fibr
kiel
auditor
fig
harald
greenvil
##berries
nell
quartz
##athic
##lr
nah
holloway
reptil
chun
sichuan
snowi
##ivo
zheng
blacksmith
hardcov
turnov
melvin
##erton
ro
roach
spaniard
colton
##founded
espionag
kelsey
edibl
##ulf
dora
##sham
##tries
##tania
cinemat
costello
##uron
connolli
duff
##nology
mma
##mata
fergu
gi
woodstock
##hee
##fle
outfield
refineri
gerhard
hord
lair
drastic
##udi
landfal
##cheng
odi
##achi
predomin
quay
##ental
edna
harshli
complementari
##aves
wreckag
##90
ono
outstretch
lennox
munit
galen
reconcil
scalp
gillespi
rosenberg
guillermo
hostel
jarvi
kabul
volvo
opium
yd
##twined
decca
outpost
##cino
sensibl
##64
ponc
anchorag
atkin
inadvert
libr
vodka
reassur
##yal
jumper
repertori
##bial
envi
##ucible
heighten
hyun
lai
prima
##ples
celest
##bina
lucr
kc
##rned
statur
staf
bun
nairobi
##auer
thatcher
##kia
comun
##ogan
##pled
brasil
emanuel
hereford
musica
##kim
benedictin
biennal
##lani
eureka
gardin
rb
sha
##ael
##elled
##onate
efficaci
ventura
sanford
maiz
leverag
##feit
santana
##aur
novelti
vanilla
##cter
##tour
benin
##oir
##rain
neptun
tallinn
##cable
humili
##boarding
schleswig
fabian
bernardo
liturgi
spectacl
sweeney
pont
routledg
##tment
cosmo
ut
hilt
sleek
##eville
##gawa
##dry
allegheni
##rly
aziz
##log
parasit
requiem
auf
##berto
##llin
##breaker
##issa
vibe
vp
sprawl
larson
bwf
##rts
##ssel
alexei
greyhound
hoars
##dler
##oration
seneca
##cule
gape
##ulously
##pura
cinnamon
##gens
##rricular
craven
houghton
dictat
##oris
bogota
unnatur
fingernail
##tm
canadien
sparta
##ytic
##iere
##zine
belgarath
dodd
iaaf
navarr
##ication
squir
steiner
whiski
##mins
tome
##gold
##uid
##lid
elast
##aby
regal
##ined
##phy
czechoslovak
##uld
bluegrass
guangdong
quran
hose
hari
##liest
##owa
skier
##lom
raft
bose
huff
##eira
haifa
simplest
ib
##titled
whitman
sven
##ggs
forster
ui
banish
napier
injustic
teller
thump
##otti
roc
evidenc
fugit
sadi
##roud
equatori
geologist
##iza
##bron
##sr
international
mecca
##diment
sb
skylin
toad
upload
undraft
lal
bayern
##dai
lakshmi
shortlist
##stick
##wicz
camouflag
af
lau
##acio
disclos
nemesi
northamptonshir
tal
##asi
bernardino
prematur
heidi
42nd
galact
reproduc
zionist
monsieur
myrtl
##eme
archeri
strangl
viewpoint
bei
seahawk
pee
tasmanian
sul
##mail
##working
colder
overland
lucivar
massey
haitian
##smith
disapprov
flaw
##cco
##enbach
npr
##icular
creol
techno
dent
abdomin
streetcar
##eson
##stream
procur
gemini
##tya
acheron
feeder
bernhard
jammu
slang
##uber
goaltend
manson
vuelta
mer
peanut
pouch
unpredict
vascular
##factory
bala
nanj
##cea
pembrok
##bard
splendid
36th
ff
hourli
##ahu
elmer
handel
##ivate
dl
##hesion
##46
caress
steak
##rangle
biologist
baro
oyster
stepfath
##dridge
mirag
##31
repeal
##tral
boogi
johanna
##imate
gel
##dington
backbon
hayward
garri
##folding
##nesia
maxi
##oof
##ppe
ellison
galileo
##stand
crimea
frenzi
amour
bumper
matric
natalia
garth
##grove
##manship
##rup
##stituting
topographi
jing
dormitori
##carriage
##lston
ist
##stadt
dolor
jewelleri
sarawak
##wai
##zier
credibl
fir
stench
##bria
##plication
##nged
##sam
##belt
marjori
pba
##eem
##made
schooner
agit
barley
anthropologist
##pro
novi
##nent
padr
##rani
##hesive
loyola
tabitha
milki
olson
proprietor
crambida
intercollegi
ljubljana
hilda
##sko
##lts
sardinia
##lidae
##vation
frontman
witchcraft
##gp
laud
##than
yunnan
##erus
maharaja
linnaeu
milano
##logies
akira
rani
##36
##rance
luzon
gretchen
seaman
edouard
tab
buccan
ellington
whig
##anto
easton
##kr
##vary
rhineland
semant
taut
succe
##iter
replic
##pired
jul
kangaroo
##avian
middlesbrough
bleak
predatori
relentless
##vili
##vir
hailey
crore
silveri
monstrou
hawthorn
##eral
caraca
kb
##sett
cartel
hadley
##aling
alexia
yvonn
##biology
cinderella
eton
superb
blizzard
industrialist
maximu
##gm
##orus
maud
clade
overs
comed
##bella
rosen
nomad
fulham
montan
redund
swarm
##rot
##folia
##llis
buckinghamshir
fen
bahadur
##rom
dynamit
faber
benoit
vip
##ount
##wd
tailor
anya
westwood
cairn
inflamm
##rocity
##acion
##urne
skyla
thereof
watford
torment
archdeacon
lulu
demeanor
serg
##sor
mckenna
##icide
residu
##sty
##ilised
##org
beech
##wana
subsidi
##ghton
gladston
ru
firefight
voodoo
##rcle
het
nightingal
tamara
edmond
silhouett
hampson
##mona
anguish
##mber
bookstor
##jiang
southernmost
##vance
bai
rf
briefcas
##rogate
analogu
indict
fullback
##dman
hayn
##tenberg
##ffs
##ishment
thirst
penang
vigor
##ddling
##kor
##lium
octav
##ove
##enstein
##inen
##ones
siberian
##uti
cbn
##vington
khalid
tanaka
unicorn
otago
lobe
riddl
##rella
##ishing
croydon
graem
tripoli
##ossa
crocodil
##chers
sufi
##tung
inferno
lsu
##phi
£2
cale
styx
coop
lund
##tidae
ala
hen
qui
sheath
##cade
fitzroy
silesia
unaccept
odisha
sabrina
pe
spokan
athena
massag
shen
dilemma
##drum
##riz
##hul
corona
niall
##pha
##bino
bangor
ballard
bathurst
##resh
huron
alzheim
kinas
tyre
##cp
flashback
pulmonari
braun
kamal
ndp
stomp
futsal
##wine
wta
##23
##vah
##lter
hoc
##riding
optimist
##´s
deco
monik
waterway
##ieri
##oku
gdansk
outnumb
##ended
##hampton
stairway
greas
yeast
##jong
carthag
amc
laird
sapphir
##marine
##ivated
lyle
suez
lurch
boast
guis
enrico
##ovsky
rower
bree
iberian
##aea
##ivist
##verance
encrypt
kazan
sabr
cleopatra
hepburn
supremaci
mecklenburg
##brate
burrow
outgo
flair
##ctions
scorpion
##usions
boo
chevali
dunedin
##34
inelig
##38
##omic
bismarck
blackish
ding
mcgee
quo
##rling
northernmost
xx
manpow
greed
sampson
##ange
##horpe
##inations
##roving
##eptive
##moral
38th
asshol
meritori
sprung
astro
##tale
filli
raoul
nw
tokugawa
linden
clubhous
##apa
romano
##pio
putin
##note
dickson
gunshot
moe
gunn
rashid
##tails
zipper
##bas
##nea
##ply
##udes
plum
pharaoh
##pile
ingrid
mariana
nokia
kamen
hz
delaney
veto
##words
##roup
siemen
stairwel
rc
gallantri
messiah
palai
zeppelin
##dm
bolivar
##cede
smackdown
mckinley
##mora
##yt
unitari
avatar
hama
maynard
ree
bog
##rut
liv
chico
disposit
pixel
##erate
becca
dmitri
yeshiva
##lva
##ulton
stealth
amass
keyn
##lini
untouch
##rrie
havoc
lithium
##fighting
abyss
graf
southward
wolverin
##icum
concacaf
dormant
##dim
csi
rana
universit
veriti
##llon
mellon
cypress
fluoresc
lifeless
spenc
##ulla
shepard
pak
##م
jolli
gibbon
paw
##dro
##quel
##test
shack
##51
##hiko
##aver
erwin
dyke
sg
enslav
##ghan
gunpowd
grassi
maroon
##oms
carlson
gearbox
macintosh
shelton
##sho
clergyman
prakash
oricon
stimuli
twenty20
cantones
cort
##saurus
bhp
cristina
melancholi
##lating
nuevo
##wny
downfal
schumach
##ind
lausann
paramilitari
reflex
ax
amplitud
migratori
##gall
##ups
midi
barnard
lastli
sherri
##hp
##nall
keyston
##kra
carleton
slipperi
##53
foe
socket
otter
##rgos
##tose
bafta
bison
##km
primal
transplant
atol
hideou
mort
tae
howl
##turn
unlaw
billionair
hotter
pois
lans
##chang
dinamo
retro
nfc
domesday
##mina
blitz
##athing
##kley
##izations
chinatown
mermaid
savanna
jameson
##aint
catalina
##pet
##hers
cochran
cy
##kus
noell
majest
mohawk
campo
octagon
##sant
##hend
aspir
##mart
comprehend
iona
paralyz
shimmer
swindon
rhone
##eley
pitchfork
francai
gillian
lipstick
##ilo
pontif
sewer
##edd
##ucher
mislead
galloway
##nging
##heart
schultz
##rka
##rsa
shriek
##weiler
gladi
goldsmith
nightli
##unced
lia
##33
betsi
##aring
##thorpe
##rave
kiran
knit
zoolog
tbilisi
##28
##bered
repositori
govt
decidu
dino
##bba
unleash
pussi
biochemistri
##eric
kettl
repress
nrhp
##arth
##kko
##bush
ernesto
commend
outspoken
mca
parchment
kristen
##aton
bisexu
rake
glamour
navajo
a2
##hma
spaciou
##esa
usl
applianc
junta
brest
layn
conglomer
enchant
loosen
picasso
montevideo
##centric
##kti
piazza
##aith
bari
poultri
stamford
lieu
##ect
indigo
sarcast
bahia
stump
frankenstein
lill
approx
pollen
##script
nmi
overseen
##ivism
newmarket
##erland
##rou
credenti
##lco
##xon
ripe
##oes
eras
##ever
populac
##bery
##khar
decomposit
##tet
daryl
sabah
##stle
##wide
fearless
geni
lesion
annett
##ogist
obo
appendix
nair
maclean
mosquito
parrot
rpg
hamper
operat
##tham
irrelev
jolt
summar
##fp
medallion
##taff
##−
harlow
goddard
marcia
fremont
suarez
tempest
mussolini
porn
##isms
sweetli
solitud
grimli
hk
ich
hostess
dietrich
legitimaci
##yp
dissip
##rse
##nikov
gettysburg
##js
##uaries
housekeep
sicilian
discourag
##frey
kaladin
halftim
##amo
##llet
deplet
instituto
insulin
##opsis
##ctric
radcliff
medici
eject
turbul
##47
starvat
##rini
shipment
rebelli
petersen
verif
##rified
##charged
milford
fidel
##aker
emit
seismic
##iform
cheung
kilda
barbi
lynx
##rgy
##tius
goblin
mata
##nburg
reactiv
obedi
##евич
conjectur
##rac
kicker
motown
##bha
emancip
neoclass
##hering
ebert
professorship
##tures
affluent
incur
##eber
##zow
##ctus
internship
terenc
boni
peninsular
ting
##aco
amplifi
corvett
lavish
pennant
##lander
worthless
##chfield
##forms
mariano
pyrene
##icides
chesterfield
mandir
39th
sergey
nestl
aristocraci
devote
goodnight
raaf
weaponri
remi
harcourt
burr
riaa
##lence
unnot
guo
##tica
tatiana
brigham
psalm
##chment
maddox
##lization
caliph
##aja
akron
serra
##ganj
##sari
astonish
launcher
##church
hilari
wilkin
sew
##sf
##fia
##ncia
underwood
startup
##ition
embank
jurist
##nity
bard
juventu
groundwat
kern
helium
boca
cramp
marissa
soto
##worm
jae
##ggy
faso
bazaar
warmli
##voking
##lite
##grate
##nets
wien
ulyss
rebirth
##alia
##rent
mummi
guzman
jimenez
##nitz
trajectori
tha
woken
##pts
##pta
hilli
shadowi
shrink
##bolt
norwood
glu
stereotyp
devoid
##pheus
infanc
gotham
knowl
sach
kingsley
parramatta
darryl
mor
##onale
shadi
kan
##meter
##placed
marlborough
roundabout
##imating
gothenburg
revok
clockwis
intrud
##sche
##ogo
vicki
bourgeoi
##mony
dupont
##gum
pd
##real
buckl
yun
penthous
sane
stakehold
neumann
bb
##eers
comb
##gam
catchment
##elles
forefront
freiburg
sweeti
giacomo
goodwil
midday
##vat
##trick
bournemouth
hearth
ethanol
guadalajara
sl
##uge
##hta
wah
##jn
transluc
puck
clumsi
##race
candac
recount
##27
##slin
##uve
##mac
strata
heron
##ays
dubiou
##oja
##т
##wheel
##laya
##mics
##pods
turkic
##lberg
injunct
##ennial
##mit
antibodi
##44
##rigues
cardiovascular
cushion
inver
##zquez
dia
cocoa
##tman
##roid
feasibl
tunisian
algier
##relli
bloomberg
dso
westphalia
tacoma
##ours
konrad
duran
##hdi
continuum
jett
secess
##nable
##gues
##zuka
reacher
##gley
##ła
aleppo
##agi
tc
versatil
postag
calhoun
##mx
barefoot
leari
##cis
ignacio
alfa
kaplan
##rogen
bratislava
mori
##vot
haa
gilmor
salford
tunic
hade
##ulsive
archeolog
delilah
brewster
empower
cappella
iroquoi
##krishna
raceway
myra
judah
mcgregor
##horse
mic
refuel
37th
burnley
marku
premio
queri
##gga
dunbar
##economic
darkest
lyndon
reappear
##mun
ezio
satisfactori
##eves
##thic
##uj
warrington
##otto
fargo
mane
##utable
##lei
##space
foreword
ox
##aris
##vern
abram
hua
##mento
sakura
##alo
uv
##skaya
##eses
sturdi
macleod
##kyu
entropi
##lance
mitochondri
cicero
thinner
##oslav
##urable
burkina
##tagram
##aman
guantanamo
##cloth
##tite
wavi
##jou
pointless
##linger
##tze
layton
portico
superfici
cleric
##hism
muir
##inn
creditor
##leg
calai
mond
reclaim
wexford
hellen
remors
##tek
dough
##uttered
gabon
neurolog
novic
##igraphy
contempl
pulpit
nightstand
saratoga
##istan
taluk
##firmed
marit
##rien
##yes
mcdonnel
mimic
fran
pendant
dhabi
musa
##nington
congratul
argent
darrel
concuss
thessaloniki
donaldson
hardwood
thenc
achil
ritter
##eran
jurgen
goeth
eki
buff
##cking
irrat
##inging
perish
seduct
qur
##crat
##typic
mustard
ravin
phylogenet
bois
##dit
##runner
##tower
intercours
seduc
##bbing
ogden
amar
nik
unarm
##inator
kyrgyzstan
##lford
##oki
mccormick
meiji
notorieti
mcgrath
##zoo
groundbreak
##lto
khorasan
agrarian
mixer
##sov
ingram
nad
tariff
##cript
tata
##codes
##emi
##ungen
appel
lehigh
##bled
##giri
brawl
duct
texan
##ciation
##ropolis
skipper
vomit
grader
whitehead
jozef
cumul
haryana
cactu
##ales
##pid
dow
##pit
picturesqu
##yse
peripheri
rune
wr
##aha
whoa
##erin
varianc
moin
mathew
spade
rave
m1
fx
##gl
##paper
grassroot
erod
##free
##physical
ordeal
##sław
hacker
rooftop
##inia
lev
cebu
##lce
##ulsion
repetit
##ryl
paisley
tuscani
sorcer
hash
shard
nix
chaplin
gaga
ito
vane
##drich
causeway
misconduct
limo
gland
jana
##kot
u2
##mple
##sons
##virus
chattanooga
##75
syrup
cornerston
##tized
##mind
##iaceae
careless
fresco
##uet
peat
##thermal
caucasian
##lbert
lambda
mp3
##oese
rolf
yerevan
ness
##ssler
befriend
trough
seater
##hom
##tangle
##lmer
eurasian
adriat
tian
##cie
anxious
lark
chichest
jock
ev
2a
##holding
loyalist
##hoot
##redo
nepali
##mite
ventral
##ango
##crats
##wice
javelin
prentic
loom
titanium
##ː
tensor
##ntation
rash
lombard
wehrmacht
dietari
trojan
##reus
horsesho
lifeboat
##lak
elsa
infirmari
roberta
boyer
trillion
joann
##fine
##oked
vortex
uruguayan
siriu
##block
sunken
byu
ochreou
maia
##tology
atroc
##ия
issn
##vyn
satur
##cycle
##isse
sabl
dyer
yusuf
##inge
wolff
##39
##nni
rollin
atheist
omin
##ault
herr
chariot
martina
strung
##fell
##farlane
horrif
sahib
saetan
ptolemi
##olic
lauderdal
##ices
navarro
beak
gorilla
herrera
broom
guadalup
syke
bsc
carmichael
tajikistan
themat
ecumen
onstag
##rians
##brand
##sume
catastroph
molten
##arns
waller
aime
##icing
##oche
nehru
##eving
templat
za
##oise
vegetarian
##tell
guiana
cavendish
lucknow
##hani
##mada
##ctable
fictiti
unreli
##enham
##chio
##neo
inhibit
togo
orderli
embroid
safari
salti
barron
benito
##dak
caden
devin
tolkien
momma
weld
sesam
##ept
gottingen
shaman
temerair
pediatr
##kit
ck
composur
cadenc
seafood
beaufort
lazaru
warili
cun
kurdistan
cantata
##kir
##41
##clusive
nape
townland
draper
malmo
##hh
##romatic
alta
bono
##clave
exce
panorama
unbeliev
##train
preschool
##essed
disconnect
##castle
##drive
##ifice
##film
slug
mindanao
##buro
##ratic
halv
##ل
ador
bragg
electrif
mcc
##dote
roxi
schizophrenia
##body
munoz
mil
tingl
##ago
unconvent
##finder
deportivo
##llie
robson
kaufman
neurosci
wai
masovian
##bh
bulg
##oun
yao
amp
mammoth
booster
claremont
hooper
nomenclatur
mclaughlin
melinda
##sul
catfish
barclay
taxa
zee
kimberli
padma
##ality
ostens
solvent
##bri
##genesis
##mist
luka
shreveport
veracruz
##ь
##lou
##wives
cheney
tt
anatolia
hobb
##zyn
cyclic
radiant
alistair
greenish
siena
dat
##bation
conform
pieter
hyper
bradshaw
spore
telangana
vinci
inexpens
nuclei
jang
nme
soho
spd
##ign
receptionist
pow
##43
##rika
fascism
##ifer
##ading
##iec
##region
jocelyn
nocturn
toro
constabulari
elgin
##kker
msc
##giving
##schen
##rase
doherti
dope
##cano
##apple
##gai
##git
intrins
##nst
##stor
showtim
lviv
##thed
restart
##sau
medial
##kovsky
##elman
##26
godfath
##door
##sell
recaptur
timet
vila
3a
aerodrom
scientolog
##orne
angelina
mag
convect
unpaid
intermitt
lego
##nated
endeavor
kota
pereira
##lz
bwv
glamorgan
agatha
fey
##cend
fleetwood
mahogani
protrud
steamship
zeta
##arty
mcguir
##sphere
##wala
hurriedli
meteor
gild
inlin
arroyo
stalker
##oge
excitedli
rever
##cure
introductori
##break
##ilde
puff
##haling
##fixed
fallout
macquari
##unas
denton
##ocation
wineri
dortmund
##lkirk
everest
invari
charismat
susi
##elling
bled
lesley
telegram
sumner
bk
##ogen
##к
wilcox
needi
colbert
duval
##iferous
##mbled
allot
imper
##hita
hawker
##inda
##zee
##eke
##yla
ive
##pack
##powering
authorit
baylor
flex
cring
woodrow
##skie
ape
aroma
unfold
commot
nt
preoccupi
theta
wand
domino
ek
nsa
bile
handkerchief
pere
nakamura
romani
asiat
magdalena
palma
konstantin
soar
##berman
colloqui
forerunn
havilland
incarcer
##utus
plank
saigon
##ining
corbin
homo
powerhous
##tlement
chong
fasten
idf
usabl
##nish
##zuki
aqueduct
##flies
aleksandr
faust
ewe
bacterium
tricki
yamaha
##isha
oblivion
evangelist
friar
##eller
monograph
ode
##nary
##nee
hagen
tnt
rudder
fiesta
dorothea
ska
inhibitor
maccabi
retort
lineman
##gist
##ape
##dick
gloom
##rera
seeker
##nut
##pment
unman
##anu
##isson
##amy
##ckman
##zell
sui
##55
##mable
##thal
rhino
##drick
##vira
zoom
##01
##rting
mn
montenegrin
packard
##unciation
##♭
##kki
scholast
thug
##icia
syriac
quan
saddam
banda
kobe
dissent
##lusion
##usia
corbett
jaya
errat
##hesis
amiga
herm
##pressing
##leen
jamal
##uating
warp
##sso
##thes
armori
##eras
##gol
antrim
loki
##kow
##asian
##good
##zano
braid
handwrit
subdistrict
funki
pantheon
##iculate
improp
juliana
##his
staten
##oco
##alle
sausag
stormi
##stered
##tters
superfamili
##grade
collater
tabloid
##oped
##rza
bladder
austen
##ellant
mcgraw
##hay
hannib
mein
aquino
lucif
wo
badger
boar
cher
christensen
greenberg
##kken
jem
cambridgeshir
##lide
##bbly
eastwood
ghent
synth
##buck
##bah
hapoel
qu
estrang
vinni
wcw
misunderstand
anglia
nothin
unmistak
##dust
##lova
chilli
marquett
truss
##edge
##erine
reec
##lty
##chemist
##connected
41st
bash
raion
##ump
##main
labyrinth
queue
theorist
##istle
bharatiya
rooney
leftist
wharton
plainli
allevi
eastman
schuster
topograph
unbear
fairchild
dona
lurk
parisian
oliveira
ia
hahn
bangladeshi
##aster
vivo
##uming
##ential
antonia
kildar
harlan
##logue
##ogenic
##sities
forgiven
##wat
childish
tavi
##mide
##orra
plausibl
grimm
scoot
##bola
##dget
##rith
emeri
flatli
azur
epilogu
##wark
##iny
##tracted
##overs
##oshi
bestsel
receipt
hermit
##cot
subunit
##layer
eel
##fk
##itas
octopu
footprint
ufo
##say
##foil
interf
palo
##metry
thistl
valiant
##pic
narayan
mcpherson
##fast
gonzal
##ym
##enne
dustin
novgorod
##zman
doin
##raph
##patient
##meyer
solubl
ashland
cuff
pendleton
vassal
##river
deviat
revisit
##eil
##nting
augsburg
auschwitz
##cona
bonnet
dummi
simeon
sleeper
mandal
##crow
##mare
miln
exasper
talmud
##feng
##uary
dentist
piraci
##rang
devlin
##torium
malici
##laid
##ergy
##fers
##enna
rourk
jed
grammat
tre
maha
wig
ghostli
jayn
##achal
##creen
##ilis
##lins
##rence
##with
cambodian
showdown
throttl
twain
##ception
metz
nagoya
##furt
roam
##minster
amin
crippl
##37
##llary
indiffer
hoffmann
intimid
influenza
memo
bandag
##landa
##rage
clandestin
swipe
##ener
##jected
##trum
##bill
##lta
josiah
##dek
humanist
manageri
grimsbi
ur
##laze
duplic
##tf
republish
bolshevik
antibiot
martini
methan
levant
iain
##ischen
paler
##around
snuck
alf
chop
futil
pedest
rehab
##kat
bmg
kerman
fairbank
jarrett
saharan
##zek
clearer
kincaid
sash
luciano
##ffey
crunch
helmut
##vara
##tute
creami
leach
##mmon
plight
wendel
##lese
contra
ts
clanci
ipa
mach
autopsi
nueva
karin
pontiac
##uding
proxi
vener
leto
bergman
##helm
wal
##pipe
canning
celin
obes
##enary
intrus
planner
##phate
harrow
##chon
##dora
mcintyr
repay
tarzan
harrisburg
margarita
repuls
##hur
##lding
belinda
novo
compliant
bingham
registrar
skyscrap
ic
cuthbert
livelihood
##corp
##elial
##dened
sporad
casablanca
popcorn
##29
asha
shovel
##bek
##dice
tangibl
##dez
casper
elsi
resin
rectori
##ivision
sonar
##mori
boutiqu
##dier
guerr
upbring
sandal
##naut
##utnant
pia
corros
hesitantli
crystallin
shapiro
tirana
45th
microscop
inquisit
wri
guernsey
unauthor
rippl
schubert
stu
feloni
##ardo
brittl
##havan
##ives
dun
implicit
##aldi
##lth
magnolia
##ehan
##puri
##poulos
fei
gr
##poo
##trust
overrun
##opus
britannia
armagh
##ggle
##vao
bewild
mundan
cosmopolitan
geometrida
quartermast
caf
chatter
engulf
purg
##icate
juliett
jurisprud
guerra
##bn
casimir
##jm
clapton
cloudi
cond
hermitag
vincenzo
matteo
##rill
hidalgo
westbound
tentacl
unaffect
##sius
annabel
flop
##litz
dreamer
interceptor
vu
##loh
breaker
torino
winfield
##teacher
sawmil
coldli
##ege
uninhabit
conic
bibliographi
severn
edict
##oca
deux
##pl
thinker
tame
##keepers
acacia
##osed
##rys
##iring
##shima
eastbound
ionic
rhea
##oum
rocker
champ
overwhelmingli
sloop
##tish
##vres
mango
##joy
nikola
##ignon
##mg
tuna
calvert
gustavo
yearbook
##urai
##mana
subsp
riff
hanoi
kelvin
hamid
jihad
nectar
##ctors
bayou
untitl
vastli
intellect
##η
##ulio
##tou
crumbl
stylist
##ی
h₂o
walden
##iens
##ignment
recit
##dev
##arte
##gul
inquir
##held
clube
homogen
hornet
pasta
prick
savior
##grin
##kou
##phile
yoon
##gara
grime
bn
distilleri
##quisite
##vity
coe
dockyard
massif
##jord
voss
##valent
byte
##koto
##vac
kv
annapoli
madden
##onus
alvaro
noctuida
##cum
##scopic
steamboat
erika
##trip
dew
bran
thirsti
diversifi
reborn
##standing
arson
##lessness
##dran
##logram
##boys
##kushima
##vious
willoughbi
##phobia
alsac
dashboard
yuki
##chai
granvil
myspac
##gang
adject
##ater
reorganis
##lassified
iec
padua
helplessli
inaccur
mana
##pati
bjp
outta
someplac
berwick
invok
marrow
excerpt
rei
##ginal
wept
##straße
##vish
alexa
##ptive
aquitain
cutler
sheppard
ns
##dur
fragranc
budg
concordia
magnesium
marcelo
##antes
gladli
##rral
##ggles
montros
##omba
lew
seamu
cocki
##ament
##uen
bjorn
##rrick
fielder
##lase
methyl
kimberley
mcdowel
barb
##jic
##tonic
aeronaut
condens
##promising
huf
##cala
##sle
claudiu
invinc
missi
piou
balthazar
##lang
combo
orson
##dication
myriad
##fed
##rh
coco
netbal
yourselv
##oza
heller
peg
durban
etud
roast
blackmail
curvatur
##woods
vile
illicit
surinam
##linson
overtur
##mming
##ouin
maldiv
##bala
gurney
##dda
##eased
##oides
backsid
pinto
racehors
##rdial
baronetci
wiener
duli
##rke
barbarian
##thesis
bertha
pleistocen
puddl
##nob
##tically
prostat
amulet
##mined
##iti
##tler
75th
cavali
papaci
raju
##iente
##ulum
##tip
funnel
disneyland
##lley
sociologist
##iam
faulkner
louvr
menon
##dson
##ower
afterlif
mannheim
peptid
meaningless
##anger
##laise
hurley
renal
##bour
##icle
breakout
kristin
roadsid
clover
disdain
unsaf
##urity
firth
barnsley
portag
reset
speechless
tubular
##lux
essendon
eyelash
smashword
##yad
##bang
##claim
crave
chet
somm
astor
wrocław
orton
bane
##erving
##uing
mischief
##amps
##sund
terr
##xious
undermin
moi
soy
contigu
arcadia
inuit
seam
##tops
macbeth
##icative
##iot
##dberg
powerless
priscilla
qc
arboretum
triest
bullock
##nified
enrich
glisten
##adia
locu
nouvel
olli
ike
starboard
ee
tapestri
hove
##vite
pollock
##yme
roi
olympiad
##lino
##hosis
##lick
ripley
##ophone
kickoff
rockwel
##arable
glue
grover
##jure
englishman
aztec
ipad
triumphant
tuft
##esian
##phus
falkland
##brates
strewn
clarissa
glint
drench
moat
johor
rr
maestro
malley
nouveau
taxonomi
v6
adher
bunk
##ritan
remington
##erative
ameli
mazda
##zai
breadth
##hae
burnham
rudd
##imov
##mini
##rso
textual
wainwright
armada
bam
timer
##taken
##nh
fra
##crest
ardent
salazar
tuni
##ntino
allegro
philanthrop
##chester
##optera
esq
juda
wynn
##dara
crise
villier
cupboard
interspers
isla
kendrick
entourag
stitch
##esthesia
headwat
##ior
interlud
distraught
draught
##basket
bias
transient
triad
subgenu
kidd
shortstop
##umatic
dimli
mcleod
nelli
pretoria
windmil
##cek
##mps
##orous
outli
##omp
##ports
##tream
cosmet
patsi
##deh
##ocks
##yson
bender
nant
seren
##nad
lucha
mmm
##cius
##gli
cmll
coinag
nestor
juarez
##rook
smear
steril
irina
embodi
miscellan
dq
gulp
luisa
swat
doneg
ref
##anov
##acker
hearst
mercantil
##lika
doorbel
ua
##alla
##som
bilbao
stryker
sw
horsemen
turkmenistan
##national
anson
##umb
rihanna
##agne
##nessy
##iani
##osphere
hine
kenton
saskatoon
tasha
truncat
##champ
##itan
mildr
fredrik
##athi
spectroscopi
##hab
##kong
karim
panda
##oia
##nail
##vc
conqueror
kgb
leukemia
##dity
pisa
phosphoru
##riated
unitarian
chopin
sanitari
##mission
spici
hing
##tort
trier
impoverish
westchest
##caster
epoch
nonstop
##gman
##khov
aromat
cerro
##tively
##vio
sedimentari
goldstein
##eak
##kt
maitland
penultim
pollard
##dance
spaceship
vertebra
##nig
##bham
##ference
##omics
m2
##bm
troi
##tropical
##в
##meric
marg
##raction
ravag
##ige
eng
##shida
albrecht
bellami
##rde
synchron
vito
easiest
shetland
wnba
##glers
##ssar
##riam
brianna
cumbria
##aceous
##rard
thayer
##nsk
brood
hilltop
lumin
keynot
larkin
##cta
##ا
##mund
##quay
lilith
tint
##uses
sequenti
siam
bloomfield
takahashi
##ieving
ringo
witti
##oven
##ignant
haydn
newt
theres
##peed
gershwin
molina
sudanes
innat
##sack
##fus
wb
##shah
hypothet
hyster
fabio
##hg
unsuit
##sboro
gallo
bret
cobalt
homemad
##hunter
mx
##dhar
durabl
latch
whorl
##ctuated
##eaux
ligament
succumb
##gly
##brick
##stead
filmfar
rochel
##nzo
saber
##nsky
##tson
wellesley
carrot
##9th
##movable
primat
druri
##mad
##rao
callahan
kyiv
smarter
tit
undo
##yeh
barrio
nebula
##islaus
##shaft
##tyn
emmett
sculli
##mah
##yd
##eland
##tino
##itarian
demot
gorman
adventist
writ
##gui
alla
invertebr
##ausen
amman
heali
redistribut
##gf
##rize
insul
##drop
hezbollah
vitro
php
uppsala
cheerlead
mischiev
tulli
##ross
49th
stipul
pumpkin
##bry
##ezer
blindli
craftsmen
frail
katharin
shaggi
spong
helix
zaragoza
##52
43rd
backlash
fontain
poss
cowan
nonfict
telenovela
wwii
undon
##gpur
encircl
##ivation
artefact
oneself
smallpox
##belle
##osaurus
shandong
upland
rankin
psych
evict
##col
unmark
##lving
gnome
musiqu
##oint
benevol
##jal
blacken
##anna
mccall
##ocene
##orestation
##hiff
##باد
munchen
##nka
condo
scissor
##sight
##tens
apprehens
##cey
##yin
hallmark
##llas
aggrav
bae
##building
enfield
marn
vedic
euclidean
jagger
beforehand
dumont
##arney
##nem
hierarch
##dya
##lellan
oleg
darbi
gregorian
##nded
##routed
sham
unspecifi
##hog
emori
factual
##smo
##tp
##rger
ortega
marlon
##oton
##urance
casket
keat
ley
enclav
##ayan
char
jia
##chenko
ammonia
erebida
incompat
##arat
columbian
rampant
kyushu
mahmud
##dern
mesopotamia
##lete
ict
##rgen
caspian
kenji
##vered
roanok
tchaikovski
##analysis
##awan
xinjiang
clemson
kazakh
sizabl
##khand
##vard
tatum
vittorio
##nden
cholera
##dana
##oper
projectil
superliga
##chee
retribut
##vies
nk
stil
##resses
ama
bureaucraci
blackberri
bosch
testosteron
greer
##pathic
ioc
##erved
bao
siegfri
##osity
##tosis
mantra
fledgl
##cchi
dissatisfi
gan
mingl
outdat
##raus
fright
##lham
##fect
##tten
fetal
##uw
fray
goth
olympian
sheng
unspoken
hyundai
tracey
hotspur
##buch
americana
mundo
##bari
burrough
diva
vulcan
##6th
##ngen
mikey
fide
springsteen
valuat
##ece
##ely
pinnacl
sylvi
##edo
almond
quiver
##irus
falter
##wad
51st
hydra
##kato
##dicated
antigua
arjun
stagecoach
wilfr
trickl
pronoun
##pon
aryan
nighttim
##anian
gall
pea
##hei
leung
##dini
eritrea
nexu
snowfal
kant
cot
discu
hana
appleton
##erina
##partisan
##itha
##vius
meti
##channel
tesla
##vera
fitch
##tila
decim
##tang
##bai
eun
pensacola
basha
bolivian
partridg
##phila
opin
##kla
##lland
volta
whereupon
##nche
devout
euroleagu
##dee
involuntari
nasser
##hide
southend
miracul
hodgson
richer
rochdal
ethernet
greta
prism
umm
##haya
##itical
##utation
prowess
##ropriation
scranton
subcontin
##koff
##scope
brute
kellogg
##vez
stanisław
##ructured
ferreira
pun
gunnar
##yat
arya
prc
gottfri
##tight
excurs
##ographer
dina
##quil
##nare
huffington
illustri
wilbur
gundam
verandah
##zard
naacp
##odle
fjord
kade
##naud
generos
baselin
cayman
frankish
##fting
cedric
qb
##dome
##otted
squeal
canuck
situ
asthma
dail
whimper
writh
##65
minni
pv
##carbon
moniqu
odin
maguir
markham
tierney
##estra
##chua
libel
speedi
atrium
laval
notwithstand
##edly
fai
kala
##sur
robb
##sma
luz
supplementari
tianjin
##acing
enzo
jd
ric
scanner
croat
transcrib
##49
arden
cv
##hair
##raphy
##lver
##uy
alam
horticultur
hs
regress
##ounded
montagu
##cit
catalyt
trooper
##meo
fitzpatrick
##oire
##roved
inexperienc
##lative
outing
duboi
quarrel
ste
learner
iq
##class
tempera
folli
liszt
##yles
immers
jordanian
ceasefir
apparel
maru
##bio
harta
stockport
assort
craftsman
paralysi
##cola
##wk
profici
solemnli
##orno
ultraviolet
##chase
schoolhous
##tua
resurg
##otype
##×
ruse
saliva
##tructing
alban
rann
1b
cougar
paddington
stat
##eger
breakaway
ipod
reza
authorship
scof
##etz
##ttle
conscript
trondheim
##fires
ivanov
keenan
##adan
##ciful
##fb
##slow
##ials
##tford
cadiz
basalt
blankli
##tick
carpathian
sync
bum
guildford
iss
staunch
##onga
sera
sofi
susquehanna
##heard
duc
masteri
vh1
williamsburg
bayer
##khan
##rdes
bloomington
##write
alton
barbecu
##bians
##hri
##ndt
smartphon
newtown
photon
peugeot
##monium
##orough
relaunch
taint
##games
##lysis
anarchi
adept
evad
evi
##beau
sinn
hurst
intuit
wilton
cisco
44th
thierri
##dalen
##hila
##nai
prank
tb
maison
provoc
4a
utopia
##qual
gujarati
purcel
##rford
curtiss
##mei
overgrown
##rnik
turnbul
##hedron
##hope
alyssa
ozon
##ʻi
gestapo
johansson
snooker
canteen
empathi
stigma
##ags
##iner
##raine
taxpay
gui
volga
##wright
##copic
lifespan
overcam
##ador
##camp
barrington
bribe
obligatori
peng
##enas
elus
sucker
##vating
cong
hardship
empow
estrada
cryptic
greasi
detaine
planck
sudburi
plaid
dod
marriott
kayla
##ears
##vb
##zd
##hein
radha
liechtenstein
richli
argyl
harpsichord
tyrant
salsa
lear
reus
trident
##chuk
##gami
##lka
cantor
checkpoint
##points
gaul
leger
mammalian
##tov
##aar
##schaft
doha
frenchman
nirvana
##vino
delgado
##eron
##iography
jug
tko
naga
##jia
benfica
nawab
##suka
ashford
##deck
##vill
##rug
brentford
frazier
potsdam
shenzhen
dentistri
##tec
flanagan
##dorff
##hear
dinah
prem
quezon
##rogated
relinquish
sutra
##pani
##rissa
poli
##rnet
homm
aback
##eki
womb
##kson
##lewood
doorstep
orthodoxi
westfield
##rval
subsid
##gata
##biotic
##ettes
letterman
lunat
prelat
tenderli
souza
winslow
##otide
furlong
gogh
jeopardi
##runa
pegasu
##umble
standalon
##roller
freshmen
klan
##bright
transatlant
viz
##uance
chieftain
despis
cdc
galveston
godzilla
macro
##planes
##esses
##ductive
##unes
overdos
##cans
##hosh
##lifting
joshi
epstein
sonora
treacher
manchu
##sation
supervisori
##christ
##llins
##ibar
##balance
##uso
kimbal
karlsruh
mab
##emy
phonet
reuter
spaghetti
almighti
danzig
tombston
outset
##felt
##wt
grupo
kei
kraft
susanna
##blood
genealog
##aghan
##verted
##ythe
##pore
##roi
lest
sharpen
fulbright
valkyri
##unds
bouquet
merritt
##tage
##venting
redhead
dea
hazi
##vances
fledg
greenfield
servicemen
##gical
armando
blackout
dt
sag
intra
potion
##4th
##mism
xp
gambia
stale
##ntine
plump
rediscov
flea
hive
##neas
##eles
olympu
scala
##eurs
##gno
##mute
sigismund
wiggl
pilast
sulfat
##ances
bellevu
enigma
traine
##sw
denim
##rank
##rder
churn
hartman
sima
##missible
socrat
mueller
##cr
himalaya
pup
##jevic
squat
nec
##lates
##pina
##rona
##ου
tequila
##gative
##mpton
apt
##dou
asturia
cleans
dario
##rries
##anta
etymolog
zhejiang
##venor
##nx
erasmu
rayon
£10
##bags
escal
promenad
stubbl
2010
artisan
axial
mora
sho
yoo
##tsky
oldi
##nally
notif
bastion
##ths
##lved
leash
pathogen
##hmi
immatur
gonzaga
ignatiu
monterrey
bryson
##loe
regatta
brightest
pei
squid
hatfield
payrol
meath
cornerback
heaviest
##mage
capcom
##sily
barnet
mayhem
ymca
snuggl
rousseau
##cute
blanchard
leighton
##md
##strel
##utter
corinn
cynic
hiroshi
yeomanri
##ractive
ebook
mandela
plume
agustin
magdalen
##rkin
bea
femm
trafford
##coll
##lun
##tance
52nd
fourier
upton
##mental
camilla
gust
iihf
islamabad
longev
##kala
feldman
##rization
endeavour
forag
mfa
orr
##open
greyish
contradict
graz
##ruff
marlen
tweed
oaxaca
spp
miocen
pri
pluto
cozi
pornograph
##entes
70th
jonni
##emon
##nist
remad
##mack
lei
newsweek
##jured
##parts
##enting
##pg
finer
athenian
deng
disus
stepmoth
gingerli
##walker
##going
gora
nostalgia
wrench
##minated
wield
eyr
##56
##gnon
##igny
##growth
childless
gallant
##ywood
geraldin
##ffi
babylonian
##rdan
##kney
##position
tack
fukuoka
selector
##dlow
gnu
kia
tak
whitley
##54
##mania
mri
##bots
##evsky
insignific
##uis
lina
purport
##americana
##dding
##inton
rouen
##nage
##rret
niccolo
##bread
fluffi
gruff
mukherje
polgara
thrash
seclud
thru
corsica
loaf
whitak
##rrier
##kam
indochina
marlin
myle
peke
##tea
pastri
superhuman
connacht
vogel
##ditional
##het
##udged
##lash
gloss
refit
teaser
##alic
##gaon
sling
picker
tung
tracker
pursuant
##cide
soc
##cini
##typical
##viere
anhalt
overboard
workout
chore
##logie
fenton
joyah
##itte
grandmast
##lass
##lists
fraudul
ledger
nagasaki
##cor
##nosis
##tsa
eucalyptu
tun
##icio
##rney
##tara
dax
heroism
ina
wrexham
onboard
unsign
##dates
mosh
galley
winni
droplet
noodl
##aia
fein
adi
leland
multicultur
stink
bingo
erskin
chemotherapi
featherweight
stifl
##mum
darkli
irresist
refresh
hasti
##oys
##wehr
yarn
implant
toulon
childbirth
yue
##lind
##lone
cn
sportsman
remodel
##rgh
##oons
##urgent
lister
ot
##logic
bequeath
cheekbon
fontana
gabbi
##dial
amadeu
corrug
maverick
##hered
##usly
nazareth
tyrol
assent
poorer
aegean
##cous
nylon
ghanaian
##egorical
##weig
forbid
fusili
obstruct
somervil
##scia
dime
ellipt
leyt
oder
timmi
atm
midtown
mayfield
##uh
henson
kean
benji
braden
pep
##efe
pepsi
valet
##isches
##asse
##earing
goofi
##amen
authoritarian
adversari
ahmedabad
tangent
toppl
dorchest
marxism
islamist
charlemagn
exponenti
unicod
brunett
mbc
pic
skirmish
##bund
##lad
##powered
##yst
hoist
messina
##ctum
jedi
vantag
##music
##neil
clemen
mahmoud
lowri
nil
##washed
omnibu
jillian
##itors
##opped
narcot
handheld
##arm
##plicity
##onis
crate
hemingway
fordham
copeland
beatti
leaflet
robber
brothel
madeira
##hedral
sphinx
ultrasound
##vana
valor
forbad
leonid
##aldo
duan
marquez
##cytes
kawasaki
consular
lax
uphold
##hopper
concepcion
dorsey
lass
##izan
passageway
tia
##graphs
##opers
javanes
##uven
##listic
##rwin
##erik
##tify
signifi
##bson
kari
felic
georgina
zulu
##eros
##rained
##rath
##dot
##rbin
chiba
ratif
windi
parapet
##marks
hunan
pristin
astrid
punta
##gart
##kota
##oder
malaga
minerva
rous
##phonic
bellow
pagoda
reclam
##gur
##odies
##⁄₄
parenthes
allerg
palett
benefactor
heartland
nonlinear
##tness
##ety
##hone
pedersen
hiram
sou
##liche
##nator
##nery
##orio
##umen
bobo
smiley
##cb
unearth
uniformli
metadata
ind
##oted
recoil
##titles
##tura
##ια
hilbert
jamestown
mcmillan
tulan
seychel
##frid
antic
coli
stucco
##grants
bulki
accolad
caledonian
carnag
puebla
##tative
##cave
rotherham
seo
dunlop
chime
archduk
hellenist
##oses
##sions
thong
##ople
magnat
rustic
##rsk
slant
##offs
##ammed
congenit
gesellschaft
##ocating
##pressive
douglass
quieter
##cm
##kshi
salim
townsvil
buena
southport
##bold
kato
faeri
stiffli
##vus
##rled
flawless
taboo
##7th
jena
##hid
##rmin
cartwright
berber
bertram
fission
hardin
inca
##cen
vhf
##raf
biscuit
##85
##anial
gaunt
##abas
blanca
behold
coincident
##bane
nara
splinter
terrif
##arion
##erian
commonplac
redwood
waistband
caitlin
fingerprint
##ired
balfour
jodi
bungalow
quilt
constrain
goo
##sil
##akh
assimil
rework
##person
persuas
##pants
felicia
##cliff
##ulent
##dun
##inium
##zic
lyman
vultur
hog
ow
##urer
fatima
sargent
soror
kochi
##imi
##lita
internacion
newfound
##agger
##lynn
##rigue
##eborg
medicar
muriel
nur
##uram
millennia
pajama
worsen
##breakers
jimi
vanuatu
yawn
##udeau
carousel
##hony
##ccus
##mounted
##pod
rv
##eche
airship
compuls
##claiming
arthriti
##osomal
ngc
dade
discont
glendal
##amina
defam
##scent
fling
##fleet
##ppy
apocalypt
lcd
##lowe
cessna
subsist
demi
hoop
coptic
perpetr
priestess
##nio
dobson
eboni
rooster
itf
tortricida
##bbon
##jian
cleanup
##jean
##øy
taxonom
##hearted
##spar
antil
##nb
gia
mascara
michelangelo
##uria
##vinsky
extinguish
fitz
grotesqu
£100
##fera
##loid
##mous
neue
cipher
##a1
##mpt
outburst
##swick
spearhead
c1
heartbreak
pleasantli
##enay
lombardi
plush
##nsed
##hly
tremor
xiang
minogu
substant
hitch
barak
##wyl
kwan
##encia
obscen
indu
surfer
briberi
##hyllum
##masters
horatio
##fat
psychot
##pour
iter
##mium
##vani
paxton
##hli
##wg
timeless
disregard
##bau
##version
loot
uno
masjid
rutland
disqualif
decatur
quak
48th
scribe
exemplari
tho
##hort
##chison
pantri
##hiti
disrepair
baccalaur
##nnis
csa
##iensis
##raße
greav
wealthiest
jog
£5
##58
##atal
knick
##uno
##iji
##dles
kruger
silvia
kam
vr
cree
perciv
##terol
gunter
counterattack
defiant
henan
ze
##rasia
##riety
##fra
##thor
bautista
##heater
cornic
herbal
templar
##mering
ligand
renumb
extravag
mika
blockbust
eta
insurrect
##ilia
feroci
strife
kinship
##aer
mele
##anor
##iste
##may
##oue
decidedli
##jad
##missive
##ppel
puget
uneas
##gnant
kassel
ob
wessex
##lga
bromwich
egan
paranoia
##atable
##idad
contradictori
##ols
##ouring
##tangled
knesset
##very
##lette
plumb
##sden
##¹
greensboro
occult
sniff
zev
gamer
haggard
mahal
##olt
##pins
mend
utmost
gunneri
##gut
##pher
##zh
##rok
khalifa
sonya
##boot
urbana
##liffe
##minating
##rrado
dahl
nyu
np
townspeopl
ithaca
lobster
somethin
##fur
##arina
##−1
freighter
zimmerman
bicep
contractu
##herton
subconsci
##anal
meng
clermont
##eia
##lub
dignitari
impetu
twig
##bilis
##cz
##ouk
libertador
nic
skylar
##aina
##firm
asean
##anum
dieter
bromley
umar
##bbies
##tyle
blah
parc
bridgeport
crank
neglig
##nction
46th
00pm
siegel
upbeat
statehood
##dner
##edging
marko
platt
##hane
##iy
abbess
limousin
nbl
##talk
lucil
mojo
nightfal
##nais
karel
brisk
calv
ascrib
##olf
##reen
ballast
##sit
aerodynam
rainer
visionari
##arded
epsilon
##aday
##onte
auditori
reunif
kathmandu
loco
robyn
humanoid
newel
##tained
chopper
italiana
##lez
##lho
wrestlemania
##anies
##bib
##falls
creak
dragoon
minion
volley
##harat
##week
musik
##eries
##uously
fungal
massimo
malvern
##ahl
##pee
embryo
1910
profoundli
##ddled
jiangsu
##holz
sweatshirt
tobin
##iction
sneer
##cheon
##oit
brit
causal
smyth
##neuve
perrin
silvio
##ipes
##recht
deton
iqbal
selma
##nism
##zumi
##riders
tay
##ados
##mament
##mut
##rud
cfa
flavour
hirsch
##laus
calderon
sneaker
moravian
##ksha
rq
##imeters
bodo
##isance
##pre
##ronia
anatom
##lke
dh
kunst
##tablished
##scoe
biomass
unharm
gael
housem
montpelli
##59
coa
rodent
tonic
hickori
singleton
##taro
aldo
breaststrok
dempsey
och
rocco
##cuit
merton
dissemin
midsumm
##idi
haji
##rdon
gs
enoch
shutter
taunton
£3
##grating
##inates
archangel
##asco
archway
dazzl
##ecin
sumo
wat
##kovich
honneur
##ently
##nostic
##ttal
##idon
blogger
##gnan
##ikh
##dant
howi
##rons
handler
retract
arun
duluth
kepler
##lary
##mara
laszlo
##iciencies
##rti
heterosexu
##inatory
##ssion
indira
##inga
##lism
beit
dissatisfact
malic
##ately
nedra
##rgeon
47th
vertigo
##ains
restroom
##plify
##tub
pear
##chner
##sibility
inorgan
wateri
##kura
lucinda
##oulos
reintroduc
##8th
##tched
wastewat
bedrock
upscal
##lateral
prequel
##pps
##tama
deter
tn
launder
rosari
coulter
##ifiers
##plin
##quitable
geschicht
pendulum
##beam
bassett
pictori
buffet
koln
##sitor
reciproc
##57
##cton
##tees
pip
donnelli
yamamoto
aqua
azor
hypnot
spitfir
wryli
roderick
##rran
sebastien
##asurable
##fles
##200
himalayan
prodigi
##iance
transvaal
handcuff
mcnamara
sublim
craze
##efined
##till
ivo
ponder
shrill
sava
##duk
bal
cad
heresi
jaipur
goran
##nished
lux
shelli
whitehal
##hre
peacekeep
##wled
demetriu
oust
##arians
##zos
beal
anwar
backstrok
cremat
##yck
benign
wadi
darmstadt
landfil
parana
colleen
mayfair
hepat
ferrer
superstructur
##gingly
##urse
##wee
##mies
hoov
##pw
##roll
##vita
##urized
purif
thwart
jalan
tiberiu
##taka
salin
##rito
khyber
##ij
brahm
hammersmith
battista
fivb
hackney
##uls
antoinett
bedfordshir
##zily
dy
##hema
racetrack
##tique
madman
aix
lehman
quinlan
sorbonn
nunez
fabl
rasp
moritz
renegad
dysfunct
translit
pancak
##avio
##cision
##tray
vial
##lden
bain
##maid
##oxide
chihuahua
malacca
vime
##rba
##rnier
donni
##ually
floppi
huntsvil
loretta
nikolay
##otte
eater
handgun
ubiquit
##hett
zodiac
##omorphic
1820
##zog
##bula
##lithic
##rada
dalai
blazer
mcconnel
bot
##abi
gees
hoax
taxon
##bla
##icon
moffat
taekwondo
##lvis
stammer
##rest
##rzy
sousa
marylebon
uptown
cabbag
daniela
salman
shitti
##kian
##utive
rm
##rmi
##rued
##enes
fuss
##tao
##wash
brat
reykjavik
spartak
##inkles
##kiewicz
adolph
horst
maui
proteg
cpc
landau
concours
##ando
joo
##rem
##ffled
##uising
##guide
kaitlyn
somber
##vron
vidhan
##imum
courtship
exemplifi
medallist
##rrow
##ка
amara
##hum
goalscor
overshadow
rohan
displeasur
multipli
osman
##orth
##kali
##veda
##yala
pali
rook
##cana
57th
oskar
crotch
hackett
yucatan
##sure
brno
ferrara
##gree
ture
##eza
mccann
andersson
onslaught
ganga
incens
##mation
sentai
scuba
turquois
waiver
##vitt
##clops
##gizing
digger
furri
memorabilia
##iad
payton
rec
deutschland
filippo
opaqu
seamen
zenith
afrikaan
##filtration
##merie
banco
grafton
tod
##dgets
simi
anomali
biplan
##ceptive
electrod
##para
cleavag
crossbow
##lars
##osta
afi
bonfir
spec
##oux
lakesid
##culus
##lais
##qvist
##rrigan
borg
inwardli
cervic
xl
pointedli
##odon
ctv
orthogon
suzi
##lastic
gaull
jacobit
rearview
##cam
##erted
ashbi
##drik
##igate
##mise
##zbek
affection
canin
latham
##istles
##ivar
spielberg
##orin
##idium
ezekiel
cid
##sg
durga
middletown
##cina
##etano
##zzy
##66
yoko
##bedo
debra
plumag
##oin
dementia
proctor
parochi
ter
##ici
esa
peshawar
loren
cpi
shamrock
dutton
malabar
mustach
##endez
##ocytes
yarmouth
##sop
acton
seton
subtli
baptis
beig
kristina
telecast
##actic
safeguard
waldo
##baldi
##bular
sloppi
subterranean
##ensburg
##itung
pigment
tq
##scu
##ound
covet
##personal
##meister
##nberger
chopra
##ricting
galician
##dilly
allig
liken
##genase
burundi
complexion
derelict
deafen
diablo
champaign
dogg
isotop
mrna
##erre
brillianc
##ayo
crawley
ether
dweller
hamish
warlock
skim
##lizer
buick
##ajan
kiara
##kulam
##ieg
antigen
kowalski
##lge
oakley
##mbit
vt
##suit
##miento
##rites
##sling
custer
exchequ
havr
##ghi
fluctuat
##rations
dfb
hendrick
##tarian
nietzsch
juici
##duced
selangor
##ragan
annum
seminol
sugarcan
##dna
department
innsbruck
ashok
batavia
kun
overtook
##rga
##tlan
behead
gaddafi
faulti
galile
kobayashi
##lized
gunmen
magma
arama
mala
eastend
infer
bf
##qu
##vere
misunderstood
##jali
##weather
mendez
##grounds
uncanni
##iii
##nbc
sacrament
reiter
pebbl
##escence
##flight
##cased
##tula
futurist
picket
winthrop
##fahan
afar
francois
uta
cochin
croft
##bruck
##dents
##nami
biker
##hner
##meral
nano
##isen
##ometric
##pres
##ан
brighten
meek
##jhl
##zko
agil
hysteria
##lten
##rcus
bukit
chevi
cuckoo
leith
sadler
##section
jj
xander
##rooms
##formed
shred
temp
pau
##lok
##stellar
essen
##mmel
ascot
twinkl
##abia
##apes
obsidian
##chaft
snoop
##dav
##ooping
malibu
##tension
##itia
mcintosh
traver
walsal
##ffie
beverley
schwarz
m3
rosenth
vikram
##tsk
ghz
##onda
##tiv
chalmer
groningen
pew
reckon
unicef
##rvis
55th
##gni
sulawesi
avila
cai
metaphys
##mberg
augusto
samba
56th
baffl
momentari
toxin
##urian
##wani
aachen
stepp
##3d
##app
##oed
##year
dauphin
inaccess
microscopi
nikita
##ega
atv
##cel
##enter
##oles
##oteric
##ы
wrongli
flinder
southland
##hem
##kata
gough
##ciency
##ה
deform
rubbish
##arus
##mussen
##nidae
##rzburg
##ingdon
##tituted
wheelbas
bombardi
campground
zebra
##lices
##oj
##bain
lullabi
##ecure
donetsk
wyli
grenada
##arding
##ης
eireann
##andra
##broken
##cuting
##iface
##ror
##rosis
britney
adulteri
##drome
detriment
aarhu
jc
vichi
##ioms
madli
##oric
##rag
brant
##ckey
##trix
broughton
rustl
##stems
##uder
asbesto
##nivorous
finley
##isan
apic
##dict
fantasia
unreason
##igen
##vna
hannov
margot
##zziness
impromptu
jian
lc
rampag
##eft
andrey
gerai
whichev
amnesia
anzac
ultimatum
cambrian
verv
yellowston
##mbs
conservatoir
##scribe
spectra
imperfect
sidekick
tatar
tuba
##aks
##ifolia
distrust
##athan
##zle
c2
ronin
zac
##pse
celaena
instrumentalist
skopj
##mbling
vidal
condor
jingl
##urrent
mcqueen
##izzly
carp
weasel
kany
postdoctor
gunsling
##ɛ
faux
hospic
##for
appal
dwarv
##elis
dilapid
##folk
astoria
philolog
##lwyn
##otho
##saka
philanthropi
##bf
##itative
geek
markedli
sql
##yce
bessi
rn
##flict
weightlift
contenti
mania
##miya
##reate
##ruck
##tucket
bien
marek
##ayton
##cence
discreet
##ife
##bber
dung
compressor
hillsborough
pandit
shill
distal
##skin
##tat
##you
##nir
mangrov
undevelop
##idia
##inho
##500
##rise
ae
nay
amazingli
bancroft
apologet
compassion
kata
##lovic
airspac
##lch
gifford
precaut
sevilla
vulgar
martiniqu
##urities
piccolo
tidi
##dermott
quadrant
armchair
stamped
nilsson
##inking
##scan
foo
##ostal
shang
##owe
vinegar
##bner
##rchy
##systems
##trics
dwyer
rhapsodi
##gration
bipolar
cinder
##olio
##urst
signag
##nty
aground
erron
soyuz
##cultural
##quette
##ssed
##tma
##zcz
##itaire
##stones
##udence
junip
##just
##nsen
britten
calabria
ry
bop
cramer
forsyth
##л
airmen
unfit
##umber
##upt
taunt
##rip
streamlin
##bution
holster
schumann
tread
vox
##gano
##onzo
strive
dil
covent
newburi
##orro
##puted
andov
ie
asahi
dept
dunkirk
##tori
buren
##stis
##stov
##opa
yearn
##glio
##sir
berman
effortlessli
enamel
napoli
##peration
##uez
elisa
b1
##kic
reindeer
boardwalk
polka
starbuck
##kei
huey
lough
unbroken
embroideri
stanza
##ducted
naia
taluka
##pone
##roids
florian
##jing
##ppet
earthli
##lib
##ssee
coloss
vet
patric
rosewood
triassic
upstat
##pkins
ata
ks
vo
##400
##bley
##raya
##rmed
agra
infiltr
##ailing
##ilation
##tzer
##uppe
##werk
binocular
fujian
squeak
##avs
abolitionist
almeida
boredom
hampstead
marsden
##ands
bonus
rosali
patna
##rco
penitentiari
54th
woolf
##dion
##etched
papyru
##lster
##nsor
##toy
dismount
endel
inhuman
motorola
wreath
##ticus
hideout
sanjay
disgrac
infus
pud
##urbed
##hyl
##rrard
collarbon
##waite
##wil
dowri
##bant
##edance
nitrat
salamanca
thyroid
necessit
##!
##"
###
##$
##%
##&
##'
##(
##)
##*
##+
##,
##-
##.
##/
##:
##;
##<
##=
##>
##?
##@
##[
##\
##]
##^
##_
##`
##{
##|
##}
##~
##¡
##¢
##£
##¤
##¥
##¦
##§
##¨
##©
##ª
##«
##¬
##®
##±
##´
##µ
##¶
##·
##º
##»
##¼
##¾
##¿
##æ
##ð
##÷
##þ
##đ
##ħ
##ŋ
##œ
##ƒ
##ɐ
##ɑ
##ɒ
##ɔ
##ɕ
##ə
##ɡ
##ɣ
##ɨ
##ɪ
##ɫ
##ɬ
##ɯ
##ɲ
##ɴ
##ɹ
##ɾ
##ʀ
##ʁ
##ʂ
##ʃ
##ʉ
##ʊ
##ʋ
##ʌ
##ʎ
##ʐ
##ʑ
##ʒ
##ʔ
##ʰ
##ʲ
##ʳ
##ʷ
##ʸ
##ʻ
##ʼ
##ʾ
##ʿ
##ˈ
##ˡ
##ˢ
##ˣ
##ˤ
##β
##γ
##δ
##ε
##ζ
##θ
##κ
##λ
##μ
##ξ
##ο
##π
##ρ
##σ
##τ
##υ
##φ
##χ
##ψ
##ω
##б
##г
##д
##ж
##з
##м
##п
##с
##у
##ф
##х
##ц
##ч
##ш
##щ
##ъ
##э
##ю
##ђ
##є
##і
##ј
##љ
##њ
##ћ
##ӏ
##ա
##բ
##գ
##դ
##ե
##թ
##ի
##լ
##կ
##հ
##մ
##յ
##ն
##ո
##պ
##ս
##վ
##տ
##ր
##ւ
##ք
##־
##א
##ב
##ג
##ד
##ו
##ז
##ח
##ט
##י
##ך
##כ
##ל
##ם
##מ
##ן
##נ
##ס
##ע
##ף
##פ
##ץ
##צ
##ק
##ר
##ש
##ת
##،
##ء
##ب
##ت
##ث
##ج
##ح
##خ
##ذ
##ز
##س
##ش
##ص
##ض
##ط
##ظ
##ع
##غ
##ـ
##ف
##ق
##ك
##و
##ى
##ٹ
##پ
##چ
##ک
##گ
##ں
##ھ
##ہ
##ے
##अ
##आ
##उ
##ए
##क
##ख
##ग
##च
##ज
##ट
##ड
##ण
##त
##थ
##द
##ध
##न
##प
##ब
##भ
##म
##य
##र
##ल
##व
##श
##ष
##स
##ह
##ा
##ि
##ी
##ो
##।
##॥
##ং
##অ
##আ
##ই
##উ
##এ
##ও
##ক
##খ
##গ
##চ
##ছ
##জ
##ট
##ড
##ণ
##ত
##থ
##দ
##ধ
##ন
##প
##ব
##ভ
##ম
##য
##র
##ল
##শ
##ষ
##স
##হ
##া
##ি
##ী
##ে
##க
##ச
##ட
##த
##ந
##ன
##ப
##ம
##ய
##ர
##ல
##ள
##வ
##ா
##ி
##ு
##ே
##ை
##ನ
##ರ
##ಾ
##ක
##ය
##ර
##ල
##ව
##ා
##ก
##ง
##ต
##ท
##น
##พ
##ม
##ย
##ร
##ล
##ว
##ส
##อ
##า
##เ
##་
##།
##ག
##ང
##ད
##ན
##པ
##བ
##མ
##འ
##ར
##ལ
##ས
##မ
##ა
##ბ
##გ
##დ
##ე
##ვ
##თ
##ი
##კ
##ლ
##მ
##ნ
##ო
##რ
##ს
##ტ
##უ
##ᄀ
##ᄂ
##ᄃ
##ᄅ
##ᄆ
##ᄇ
##ᄉ
##ᄊ
##ᄋ
##ᄌ
##ᄎ
##ᄏ
##ᄐ
##ᄑ
##ᄒ
##ᅡ
##ᅢ
##ᅥ
##ᅦ
##ᅧ
##ᅩ
##ᅪ
##ᅭ
##ᅮ
##ᅯ
##ᅲ
##ᅳ
##ᅴ
##ᅵ
##ᆨ
##ᆫ
##ᆯ
##ᆷ
##ᆸ
##ᆼ
##ᴬ
##ᴮ
##ᴰ
##ᴵ
##ᴺ
##ᵀ
##ᵃ
##ᵇ
##ᵈ
##ᵉ
##ᵍ
##ᵏ
##ᵐ
##ᵒ
##ᵖ
##ᵗ
##ᵘ
##ᵣ
##ᵤ
##ᵥ
##ᶜ
##ᶠ
##‐
##‑
##‒
##–
##—
##―
##‖
##‘
##’
##‚
##“
##”
##„
##†
##‡
##•
##…
##‰
##′
##″
##›
##‿
##⁄
##⁰
##ⁱ
##⁴
##⁵
##⁶
##⁷
##⁸
##⁹
##⁻
##ⁿ
##₅
##₆
##₇
##₈
##₉
##₊
##₍
##₎
##ₐ
##ₑ
##ₒ
##ₓ
##ₕ
##ₖ
##ₗ
##ₘ
##ₚ
##ₛ
##ₜ
##₤
##₩
##€
##₱
##₹
##ℓ
##№
##ℝ
##™
##⅓
##⅔
##←
##↑
##→
##↓
##↔
##↦
##⇄
##⇌
##⇒
##∂
##∅
##∆
##∇
##∈
##∗
##∘
##√
##∞
##∧
##∨
##∩
##∪
##≈
##≡
##≤
##≥
##⊂
##⊆
##⊕
##⊗
##⋅
##─
##│
##■
##▪
##●
##★
##☆
##☉
##♠
##♣
##♥
##♦
##♯
##⟨
##⟩
##ⱼ
##⺩
##⺼
##⽥
##、
##。
##〈
##〉
##《
##》
##「
##」
##『
##』
##〜
##あ
##い
##う
##え
##お
##か
##き
##く
##け
##こ
##さ
##し
##す
##せ
##そ
##た
##ち
##っ
##つ
##て
##と
##な
##に
##ぬ
##ね
##の
##は
##ひ
##ふ
##へ
##ほ
##ま
##み
##む
##め
##も
##や
##ゆ
##よ
##ら
##り
##る
##れ
##ろ
##を
##ん
##ァ
##ア
##ィ
##イ
##ウ
##ェ
##エ
##オ
##カ
##キ
##ク
##ケ
##コ
##サ
##シ
##ス
##セ
##タ
##チ
##ッ
##ツ
##テ
##ト
##ナ
##ニ
##ノ
##ハ
##ヒ
##フ
##ヘ
##ホ
##マ
##ミ
##ム
##メ
##モ
##ャ
##ュ
##ョ
##ラ
##リ
##ル
##レ
##ロ
##ワ
##ン
##・
##ー
##一
##三
##上
##下
##不
##世
##中
##主
##久
##之
##也
##事
##二
##五
##井
##京
##人
##亻
##仁
##介
##代
##仮
##伊
##会
##佐
##侍
##保
##信
##健
##元
##光
##八
##公
##内
##出
##分
##前
##劉
##力
##加
##勝
##北
##区
##十
##千
##南
##博
##原
##口
##古
##史
##司
##合
##吉
##同
##名
##和
##囗
##四
##国
##國
##土
##地
##坂
##城
##堂
##場
##士
##夏
##外
##大
##天
##太
##夫
##奈
##女
##子
##学
##宀
##宇
##安
##宗
##定
##宣
##宮
##家
##宿
##寺
##將
##小
##尚
##山
##岡
##島
##崎
##川
##州
##巿
##帝
##平
##年
##幸
##广
##弘
##張
##彳
##後
##御
##德
##心
##忄
##志
##忠
##愛
##成
##我
##戦
##戸
##手
##扌
##政
##文
##新
##方
##日
##明
##星
##春
##昭
##智
##曲
##書
##月
##有
##朝
##木
##本
##李
##村
##東
##松
##林
##森
##楊
##樹
##橋
##歌
##止
##正
##武
##比
##氏
##民
##水
##氵
##氷
##永
##江
##沢
##河
##治
##法
##海
##清
##漢
##瀬
##火
##版
##犬
##王
##生
##田
##男
##疒
##発
##白
##的
##皇
##目
##相
##省
##真
##石
##示
##社
##神
##福
##禾
##秀
##秋
##空
##立
##章
##竹
##糹
##美
##義
##耳
##良
##艹
##花
##英
##華
##葉
##藤
##行
##街
##西
##見
##訁
##語
##谷
##貝
##貴
##車
##軍
##辶
##道
##郎
##郡
##部
##都
##里
##野
##金
##鈴
##镇
##長
##門
##間
##阝
##阿
##陳
##陽
##雄
##青
##面
##風
##食
##香
##馬
##高
##龍
##龸
##ﬁ
##ﬂ
##！
##（
##）
##，
##－
##．
##／
##：
##？
##～